{
  "version": "1.0",
  "truncation": null,
  "padding": null,
  "added_tokens": [
    {
      "id": 0,
      "content": "[PAD]",
      "single_word": false,
      "lstrip": false,
      "rstrip": false,
      "normalized": false,
      "special": true
    },
    {
      "id": 1,
      "content": "[CLS]",
      "single_word": false,
      "lstrip": false,
      "rstrip": false,
      "normalized": false,
      "special": true
    },
    {
      "id": 2,
      "content": "[SEP]",
      "single_word": false,
      "lstrip": false,
      "rstrip": false,
      "normalized": false,
      "special": true
    },
    {
      "id": 3,
      "content": "[MASK]",
      "single_word": false,
      "lstrip": false,
      "rstrip": false,
      "normalized": false,
      "special": true
    }
  ],
  "normalizer": {
    "type": "NFKC"
  },
  "pre_tokenizer": {
    "type": "ByteLevel",
    "add_prefix_space": true,
    "trim_offsets": true,
    "use_regex": false
  },
  "post_processor": null,
  "decoder": {
    "type": "ByteLevel",
    "add_prefix_space": true,
    "trim_offsets": true,
    "use_regex": true
  },
  "model": {
    "type": "BPE",
    "dropout": null,
    "unk_token": null,
    "continuing_subword_prefix": null,
    "end_of_word_suffix": null,
    "fuse_unk": false,
    "byte_fallback": true,
    "ignore_merges": false,
    "vocab": {
      "[PAD]": 0,
      "[CLS]": 1,
      "[SEP]": 2,
      "[MASK]": 3,
      "!": 4,
      "\"": 5,
      "#": 6,
      "$": 7,
      "%": 8,
      "&": 9,
      "'": 10,
      "(": 11,
      ")": 12,
      "*": 13,
      "+": 14,
      ",": 15,
      "-": 16,
      ".": 17,
      "/": 18,
      "0": 19,
      "1": 20,
      "2": 21,
      "3": 22,
      "4": 23,
      "5": 24,
      "6": 25,
      "7": 26,
      "8": 27,
      "9": 28,
      ":": 29,
      ";": 30,
      "<": 31,
      "=": 32,
      ">": 33,
      "?": 34,
      "@": 35,
      "A": 36,
      "B": 37,
      "C": 38,
      "D": 39,
      "E": 40,
      "F": 41,
      "G": 42,
      "H": 43,
      "I": 44,
      "J": 45,
      "K": 46,
      "L": 47,
      "M": 48,
      "N": 49,
      "O": 50,
      "P": 51,
      "Q": 52,
      "R": 53,
      "S": 54,
      "T": 55,
      "U": 56,
      "V": 57,
      "W": 58,
      "X": 59,
      "Y": 60,
      "Z": 61,
      "[": 62,
      "\\": 63,
      "]": 64,
      "^": 65,
      "_": 66,
      "`": 67,
      "a": 68,
      "b": 69,
      "c": 70,
      "d": 71,
      "e": 72,
      "f": 73,
      "g": 74,
      "h": 75,
      "i": 76,
      "j": 77,
      "k": 78,
      "l": 79,
      "m": 80,
      "n": 81,
      "o": 82,
      "p": 83,
      "q": 84,
      "r": 85,
      "s": 86,
      "t": 87,
      "u": 88,
      "v": 89,
      "w": 90,
      "x": 91,
      "y": 92,
      "z": 93,
      "|": 94,
      "}": 95,
      "~": 96,
      "¡": 97,
      "¢": 98,
      "£": 99,
      "¤": 100,
      "¥": 101,
      "¦": 102,
      "§": 103,
      "¨": 104,
      "©": 105,
      "ª": 106,
      "«": 107,
      "¬": 108,
      "®": 109,
      "¯": 110,
      "°": 111,
      "±": 112,
      "²": 113,
      "³": 114,
      "´": 115,
      "µ": 116,
      "¶": 117,
      "·": 118,
      "¸": 119,
      "¹": 120,
      "º": 121,
      "»": 122,
      "¼": 123,
      "½": 124,
      "¾": 125,
      "¿": 126,
      "Â": 127,
      "Ã": 128,
      "Ä": 129,
      "Å": 130,
      "Æ": 131,
      "Ç": 132,
      "É": 133,
      "Ê": 134,
      "Ë": 135,
      "Ì": 136,
      "Î": 137,
      "Ï": 138,
      "Ð": 139,
      "Ñ": 140,
      "Ò": 141,
      "Ô": 142,
      "Ö": 143,
      "×": 144,
      "Ø": 145,
      "Ù": 146,
      "Ú": 147,
      "Û": 148,
      "à": 149,
      "á": 150,
      "â": 151,
      "ã": 152,
      "ä": 153,
      "å": 154,
      "æ": 155,
      "ç": 156,
      "è": 157,
      "é": 158,
      "ê": 159,
      "ë": 160,
      "ì": 161,
      "í": 162,
      "ï": 163,
      "ð": 164,
      "Ċ": 165,
      "Ġ": 166,
      "Ģ": 167,
      "ģ": 168,
      "Ĥ": 169,
      "ĥ": 170,
      "Ħ": 171,
      "ħ": 172,
      "Ĩ": 173,
      "ĩ": 174,
      "Ī": 175,
      "ī": 176,
      "Ĭ": 177,
      "ĭ": 178,
      "Į": 179,
      "į": 180,
      "İ": 181,
      "ı": 182,
      "Ĳ": 183,
      "ĳ": 184,
      "Ĵ": 185,
      "ĵ": 186,
      "Ķ": 187,
      "ķ": 188,
      "ĸ": 189,
      "Ĺ": 190,
      "ĺ": 191,
      "Ļ": 192,
      "ļ": 193,
      "Ľ": 194,
      "ľ": 195,
      "Ŀ": 196,
      "ŀ": 197,
      "Ł": 198,
      "ł": 199,
      "Ń": 200,
      "eĠ": 201,
      "Ġt": 202,
      "sĠ": 203,
      "in": 204,
      "er": 205,
      "an": 206,
      "tĠ": 207,
      "Ġth": 208,
      "dĠ": 209,
      "on": 210,
      "or": 211,
      "en": 212,
      ",Ġ": 213,
      "yĠ": 214,
      "ĠtheĠ": 215,
      "ou": 216,
      "ar": 217,
      "al": 218,
      "at": 219,
      "oĠ": 220,
      "ing": 221,
      "re": 222,
      "it": 223,
      ".Ġ": 224,
      "of": 225,
      "st": 226,
      "aĠ": 227,
      "andĠ": 228,
      "ic": 229,
      "ingĠ": 230,
      "es": 231,
      "om": 232,
      "edĠ": 233,
      "ion": 234,
      "th": 235,
      "erĠ": 236,
      "ĠtoĠ": 237,
      "il": 238,
      "isĠ": 239,
      "el": 240,
      "ofĠ": 241,
      "âĢ": 242,
      "ac": 243,
      "hĠ": 244,
      ".Ċ": 245,
      "for": 246,
      "as": 247,
      "is": 248,
      "esĠ": 249,
      "ro": 250,
      "atĠ": 251,
      "ed": 252,
      "inĠ": 253,
      "ec": 254,
      "lĠ": 255,
      "ow": 256,
      "asĠ": 257,
      "you": 258,
      "anĠ": 259,
      "alĠ": 260,
      "ent": 261,
      "Th": 262,
      "am": 263,
      "veĠ": 264,
      "ur": 265,
      "le": 266,
      "us": 267,
      "ol": 268,
      "im": 269,
      "ig": 270,
      "wh": 271,
      "em": 272,
      "ad": 273,
      "id": 274,
      "rĠ": 275,
      "ch": 276,
      "et": 277,
      "ation": 278,
      "pl": 279,
      "enĠ": 280,
      "un": 281,
      "ab": 282,
      "wit": 283,
      "lyĠ": 284,
      "kĠ": 285,
      "âĢĻ": 286,
      "ha": 287,
      "ver": 288,
      "forĠ": 289,
      "ag": 290,
      "onĠ": 291,
      "os": 292,
      "orĠ": 293,
      "and": 294,
      "eĠth": 295,
      "com": 296,
      "oo": 297,
      "IĠ": 298,
      "ay": 299,
      "pro": 300,
      "sh": 301,
      "entĠ": 302,
      "eĠt": 303,
      "ĠthatĠ": 304,
      "con": 305,
      "ex": 306,
      "if": 307,
      "itĠ": 308,
      "ul": 309,
      "op": 310,
      "ir": 311,
      "areĠ": 312,
      "TheĠ": 313,
      "res": 314,
      "uc": 315,
      "youĠ": 316,
      "fr": 317,
      "withĠ": 318,
      "ap": 319,
      "ofĠtheĠ": 320,
      "ut": 321,
      "ear": 322,
      "s,Ġ": 323,
      "ot": 324,
      "be": 325,
      "nĠ": 326,
      "ak": 327,
      "ri": 328,
      "beĠ": 329,
      "int": 330,
      "up": 331,
      "e,Ġ": 332,
      "igh": 333,
      "li": 334,
      "ev": 335,
      "ayĠ": 336,
      "ew": 337,
      "ionĠ": 338,
      "oun": 339,
      "-Ġ": 340,
      "leĠ": 341,
      "um": 342,
      "oc": 343,
      "otĠ": 344,
      "Ġto": 345,
      "Ġthe": 346,
      "ect": 347,
      "qu": 348,
      "se": 349,
      "ereĠ": 350,
      "all": 351,
      "haveĠ": 352,
      "per": 353,
      "illĠ": 354,
      "inĠtheĠ": 355,
      "ationĠ": 356,
      "from": 357,
      "wasĠ": 358,
      ":Ġ": 359,
      "di": 360,
      "cl": 361,
      "est": 362,
      "wor": 363,
      "ep": 364,
      "sp": 365,
      "s.Ġ": 366,
      "ersĠ": 367,
      "20": 368,
      "âĢĻsĠ": 369,
      "yourĠ": 370,
      "oth": 371,
      "ceĠ": 372,
      "oul": 373,
      "art": 374,
      "act": 375,
      "e.Ġ": 376,
      "owĠ": 377,
      "outĠ": 378,
      "icĠ": 379,
      "ra": 380,
      "bu": 381,
      "ateĠ": 382,
      "ant": 383,
      "ĠthisĠ": 384,
      "willĠ": 385,
      "iv": 386,
      "eĠtoĠ": 387,
      "iveĠ": 388,
      "oneĠ": 389,
      "ess": 390,
      "notĠ": 391,
      "byĠ": 392,
      "allĠ": 393,
      "pr": 394,
      "gr": 395,
      "'sĠ": 396,
      "end": 397,
      "we": 398,
      "soĠ": 399,
      "ouldĠ": 400,
      "sĠandĠ": 401,
      "canĠ": 402,
      "eĠtheĠ": 403,
      "ĠandĠ": 404,
      "ist": 405,
      "etĠ": 406,
      "rec": 407,
      "oug": 408,
      "irĠ": 409,
      "mor": 410,
      "bl": 411,
      "âĢľ": 412,
      "fromĠ": 413,
      "our": 414,
      "ov": 415,
      "âĢĿ": 416,
      "ourĠ": 417,
      "ityĠ": 418,
      "ud": 419,
      "por": 420,
      "ef": 421,
      "od": 422,
      "edĠtoĠ": 423,
      "y,Ġ": 424,
      "allyĠ": 425,
      "ewĠ": 426,
      "with": 427,
      "out": 428,
      "0Ġ": 429,
      "heĠ": 430,
      "comp": 431,
      "hasĠ": 432,
      "man": 433,
      "fĠ": 434,
      "ter": 435,
      "sa": 436,
      "In": 437,
      "su": 438,
      "som": 439,
      "ain": 440,
      "St": 441,
      "weĠ": 442,
      "ip": 443,
      ",ĠandĠ": 444,
      "ill": 445,
      "str": 446,
      "ong": 447,
      ",ĠtheĠ": 448,
      "sĠofĠ": 449,
      "eĠofĠ": 450,
      "og": 451,
      "estĠ": 452,
      ")Ġ": 453,
      "cont": 454,
      "ne": 455,
      "mĠ": 456,
      "ang": 457,
      "av": 458,
      "myĠ": 459,
      "..": 460,
      "hisĠ": 461,
      "iesĠ": 462,
      "ard": 463,
      "butĠ": 464,
      "he": 465,
      "ind": 466,
      "thĠ": 467,
      ".ĠI": 468,
      "ob": 469,
      "ell": 470,
      "over": 471,
      "ingĠtheĠ": 472,
      "ĠtoĠtheĠ": 473,
      "iz": 474,
      "ment": 475,
      ".ĠTh": 476,
      "ass": 477,
      "Ġtr": 478,
      "enc": 479,
      "ustĠ": 480,
      "atĠtheĠ": 481,
      "cre": 482,
      "ail": 483,
      "ightĠ": 484,
      "onĠtheĠ": 485,
      ".ĠA": 486,
      "sĠtoĠ": 487,
      "anc": 488,
      "lik": 489,
      "ast": 490,
      "es,Ġ": 491,
      "year": 492,
      "s.Ċ": 493,
      "arĠ": 494,
      "Wh": 495,
      "whic": 496,
      "Ċ-Ġ": 497,
      "duc": 498,
      "erv": 499,
      "terĠ": 500,
      "ostĠ": 501,
      "ĠtheirĠ": 502,
      "ack": 503,
      "Ch": 504,
      "herĠ": 505,
      "e.Ċ": 506,
      "ight": 507,
      "ĠtheyĠ": 508,
      "pe": 509,
      "fer": 510,
      "af": 511,
      ".ĠTheĠ": 512,
      "eĠandĠ": 513,
      "mak": 514,
      "dis": 515,
      "otherĠ": 516,
      "und": 517,
      "form": 518,
      "port": 519,
      "kn": 520,
      "do": 521,
      "me": 522,
      "aw": 523,
      "whichĠ": 524,
      "atedĠ": 525,
      "201": 526,
      "ens": 527,
      "ialĠ": 528,
      "essĠ": 529,
      "mentĠ": 530,
      "ough": 531,
      "elĠ": 532,
      "br": 533,
      "moreĠ": 534,
      "adĠ": 535,
      "whoĠ": 536,
      "ever": 537,
      "her": 538,
      "lin": 539,
      "vid": 540,
      "iceĠ": 541,
      "ureĠ": 542,
      "ook": 543,
      "astĠ": 544,
      "pĠ": 545,
      "pos": 546,
      "fir": 547,
      "Ġtim": 548,
      "âĢĿĠ": 549,
      "fl": 550,
      "aĠs": 551,
      "ingĠtoĠ": 552,
      "comm": 553,
      "ord": 554,
      "amĠ": 555,
      "ure": 556,
      "idĠ": 557,
      "vi": 558,
      "AĠ": 559,
      "pres": 560,
      "ableĠ": 561,
      "itsĠ": 562,
      "eyĠ": 563,
      "par": 564,
      "anyĠ": 565,
      "forĠtheĠ": 566,
      "chĠ": 567,
      "po": 568,
      "alsoĠ": 569,
      "ult": 570,
      "oll": 571,
      "fe": 572,
      "andĠtheĠ": 573,
      "ust": 574,
      "ph": 575,
      "pre": 576,
      "pleĠ": 577,
      "ib": 578,
      "aboutĠ": 579,
      "stĠ": 580,
      "uchĠ": 581,
      "ageĠ": 582,
      "fin": 583,
      "day": 584,
      "acc": 585,
      "beenĠ": 586,
      "19": 587,
      "work": 588,
      "aĠl": 589,
      "sc": 590,
      "icalĠ": 591,
      "upĠ": 592,
      "bec": 593,
      "âĢĵ": 594,
      "oodĠ": 595,
      "off": 596,
      "An": 597,
      "wereĠ": 598,
      "eg": 599,
      "att": 600,
      "hel": 601,
      "wouldĠ": 602,
      "sel": 603,
      "ug": 604,
      "\"Ġ": 605,
      "min": 606,
      "Ġthem": 607,
      "iteĠ": 608,
      "ound": 609,
      "aus": 610,
      "elyĠ": 611,
      "antĠ": 612,
      "go": 613,
      "inter": 614,
      "âĢĻtĠ": 615,
      "00": 616,
      "ownĠ": 617,
      "enceĠ": 618,
      "way": 619,
      "usĠ": 620,
      "ly": 621,
      "ign": 622,
      "itt": 623,
      "iĠ": 624,
      "sid": 625,
      "ackĠ": 626,
      "aryĠ": 627,
      "ameĠ": 628,
      "mon": 629,
      "emb": 630,
      "hadĠ": 631,
      "ity": 632,
      "ach": 633,
      "eth": 634,
      ".ĠS": 635,
      "eseĠ": 636,
      "own": 637,
      "ish": 638,
      "ousĠ": 639,
      "someĠ": 640,
      "ount": 641,
      "ick": 642,
      "ifĠ": 643,
      "tion": 644,
      "row": 645,
      "de": 646,
      "ition": 647,
      "ous": 648,
      "justĠ": 649,
      "mar": 650,
      "WeĠ": 651,
      "utĠ": 652,
      "2Ġ": 653,
      "whenĠ": 654,
      "part": 655,
      ".ĠH": 656,
      "des": 657,
      "5Ġ": 658,
      "edĠtheĠ": 659,
      "?Ġ": 660,
      "clud": 661,
      "ainĠ": 662,
      "ardĠ": 663,
      "ookĠ": 664,
      "arg": 665,
      "serv": 666,
      "whatĠ": 667,
      "newĠ": 668,
      "mostĠ": 669,
      "You": 670,
      "doĠ": 671,
      "lo": 672,
      "aseĠ": 673,
      "oseĠ": 674,
      "withĠtheĠ": 675,
      "Ġthat": 676,
      "ire": 677,
      "ileĠ": 678,
      "gre": 679,
      "ellĠ": 680,
      "er,Ġ": 681,
      "'tĠ": 682,
      "ans": 683,
      "let": 684,
      "oundĠ": 685,
      "aĠc": 686,
      "1Ġ": 687,
      "ies": 688,
      "oughĠ": 689,
      "Ġtak": 690,
      "sup": 691,
      "dr": 692,
      "by": 693,
      "entsĠ": 694,
      "aĠf": 695,
      "âĢĵĠ": 696,
      "includ": 697,
      "abl": 698,
      "produc": 699,
      "but": 700,
      "mayĠ": 701,
      "ing,Ġ": 702,
      "xĠ": 703,
      "likeĠ": 704,
      "add": 705,
      "don": 706,
      "aĠb": 707,
      "vers": 708,
      "anceĠ": 709,
      "not": 710,
      ";Ġ": 711,
      "veryĠ": 712,
      "Un": 713,
      "sur": 714,
      "!Ġ": 715,
      "co": 716,
      "getĠ": 717,
      "noĠ": 718,
      "SĠ": 719,
      "sĠtheĠ": 720,
      "ectĠ": 721,
      "||": 722,
      "sy": 723,
      "rem": 724,
      "edĠinĠ": 725,
      "ongĠ": 726,
      "sĠareĠ": 727,
      "reeĠ": 728,
      "reĠ": 729,
      "achĠ": 730,
      "sĠinĠ": 731,
      "edĠbyĠ": 732,
      "peo": 733,
      "ey": 734,
      "plac": 735,
      "eng": 736,
      "ilĠ": 737,
      "fromĠtheĠ": 738,
      "Al": 739,
      "are": 740,
      "read": 741,
      ".ĠIĠ": 742,
      ".ĊTheĠ": 743,
      "eĠthatĠ": 744,
      "bet": 745,
      "him": 746,
      "omeĠ": 747,
      "esĠandĠ": 748,
      "bo": 749,
      "endĠ": 750,
      "onlyĠ": 751,
      "oldĠ": 752,
      "Ġthr": 753,
      "ple": 754,
      ".ĠB": 755,
      "play": 756,
      "dev": 757,
      "oĠtheĠ": 758,
      "ĠthereĠ": 759,
      "reg": 760,
      "ship": 761,
      "tĠofĠ": 762,
      "sĠthatĠ": 763,
      "woĠ": 764,
      "ann": 765,
      "YouĠ": 766,
      "rel": 767,
      "sheĠ": 768,
      "3Ġ": 769,
      "dif": 770,
      "200": 771,
      "ert": 772,
      "e-": 773,
      "isĠaĠ": 774,
      "provid": 775,
      "get": 776,
      "Con": 777,
      "son": 778,
      "ThisĠ": 779,
      "Com": 780,
      "dayĠ": 781,
      "inv": 782,
      "ext": 783,
      "mat": 784,
      "ubl": 785,
      "rit": 786,
      "omĠ": 787,
      "dec": 788,
      "gl": 789,
      "mer": 790,
      "old": 791,
      "want": 792,
      "tionĠ": 793,
      "hap": 794,
      "any": 795,
      "dat": 796,
      "ed,Ġ": 797,
      "stor": 798,
      "adeĠ": 799,
      "vis": 800,
      "bas": 801,
      "ener": 802,
      "ineĠ": 803,
      "everĠ": 804,
      "ood": 805,
      "a,Ġ": 806,
      "firstĠ": 807,
      "was": 808,
      "eas": 809,
      "makeĠ": 810,
      "ret": 811,
      "so": 812,
      "ryĠ": 813,
      "gu": 814,
      "lif": 815,
      "?Ċ": 816,
      "ulĠ": 817,
      "opĠ": 818,
      "ek": 819,
      "10": 820,
      "becaus": 821,
      "med": 822,
      "intoĠ": 823,
      "rat": 824,
      "oy": 825,
      "requ": 826,
      "4Ġ": 827,
      "iaĠ": 828,
      "ingĠandĠ": 829,
      "peopleĠ": 830,
      "ech": 831,
      "sec": 832,
      "leg": 833,
      "overĠ": 834,
      "manyĠ": 835,
      "olog": 836,
      "urn": 837,
      "inn": 838,
      "ial": 839,
      "org": 840,
      "loc": 841,
      "fac": 842,
      "ĠS": 843,
      "inc": 844,
      "Ġte": 845,
      "peri": 846,
      "ond": 847,
      "evenĠ": 848,
      "workĠ": 849,
      "ueĠ": 850,
      "couldĠ": 851,
      "eb": 852,
      "chang": 853,
      "said": 854,
      "willĠbeĠ": 855,
      "iss": 856,
      "!Ċ": 857,
      "ingĠaĠ": 858,
      "Fr": 859,
      "riv": 860,
      "isĠtheĠ": 861,
      "sĠforĠ": 862,
      "âĢĶ": 863,
      "car": 864,
      "stem": 865,
      "ationalĠ": 866,
      "ualĠ": 867,
      "app": 868,
      "ort": 869,
      "howĠ": 870,
      "bel": 871,
      "cur": 872,
      "theĠ": 873,
      "suchĠ": 874,
      "usin": 875,
      "toĠ": 876,
      "yĠtoĠ": 877,
      "umb": 878,
      "ub": 879,
      "spec": 880,
      "En": 881,
      "ĠtheseĠ": 882,
      "Mar": 883,
      "ful": 884,
      "EĠ": 885,
      "au": 886,
      "sub": 887,
      "ingsĠ": 888,
      "sm": 889,
      "inform": 890,
      "On": 891,
      "under": 892,
      "sĊ": 893,
      "wat": 894,
      "can": 895,
      "say": 896,
      "ma": 897,
      "ank": 898,
      "befor": 899,
      "differ": 900,
      "ath": 901,
      "eĊ": 902,
      "Ġthin": 903,
      "llĠ": 904,
      "shouldĠ": 905,
      "sch": 906,
      "byĠtheĠ": 907,
      "istĠ": 908,
      "about": 909,
      "mark": 910,
      "esĠofĠ": 911,
      "tim": 912,
      "meĠ": 913,
      ".Ċ-Ġ": 914,
      "ost": 915,
      "ff": 916,
      "pol": 917,
      "ementĠ": 918,
      "umĠ": 919,
      "look": 920,
      "whereĠ": 921,
      "stat": 922,
      "DĠ": 923,
      "ionsĠ": 924,
      "proc": 925,
      "ari": 926,
      ",ĠbutĠ": 927,
      "exp": 928,
      "ere": 929,
      ".ĠItĠ": 930,
      "sl": 931,
      "esĠtoĠ": 932,
      "6Ġ": 933,
      "ItĠ": 934,
      "air": 935,
      "amp": 936,
      "worl": 937,
      "8Ġ": 938,
      "tingĠ": 939,
      ".ĠM": 940,
      "cr": 941,
      "aĠt": 942,
      "sk": 943,
      "oryĠ": 944,
      "def": 945,
      "InĠ": 946,
      "Pro": 947,
      "&Ġ": 948,
      "cor": 949,
      "ationsĠ": 950,
      "ific": 951,
      "back": 952,
      "yp": 953,
      "fect": 954,
      "resp": 955,
      "ishĠ": 956,
      "Ar": 957,
      "ickĠ": 958,
      "amil": 959,
      "stud": 960,
      "epĠ": 961,
      "elop": 962,
      "atingĠ": 963,
      "lear": 964,
      "ild": 965,
      "ĠthemĠ": 966,
      "run": 967,
      "TĠ": 968,
      "sit": 969,
      "know": 970,
      "muchĠ": 971,
      "afterĠ": 972,
      "mod": 973,
      "7Ġ": 974,
      "ock": 975,
      "saidĠ": 976,
      "ros": 977,
      "ject": 978,
      "high": 979,
      "ansĠ": 980,
      "how": 981,
      "âĢĿĊ": 982,
      "cas": 983,
      "wellĠ": 984,
      "goodĠ": 985,
      "e.": 986,
      "nam": 987,
      "cent": 988,
      "inst": 989,
      "|Ċ": 990,
      "publ": 991,
      "sim": 992,
      ",Ġth": 993,
      "ĠtimeĠ": 994,
      "ke": 995,
      "seeĠ": 996,
      ".ĠThisĠ": 997,
      "ers": 998,
      "orsĠ": 999,
      "prob": 1000,
      "Cl": 1001,
      "ĠthanĠ": 1002,
      "again": 1003,
      "det": 1004,
      "nâĢĻtĠ": 1005,
      ":Ċ": 1006,
      "inĠaĠ": 1007,
      "useĠ": 1008,
      "ĠtwoĠ": 1009,
      "beingĠ": 1010,
      "cour": 1011,
      "oft": 1012,
      "nowĠ": 1013,
      "sol": 1014,
      "stand": 1015,
      "busin": 1016,
      "ĠthatĠtheĠ": 1017,
      "ict": 1018,
      "enĠtheĠ": 1019,
      "yĠandĠ": 1020,
      "Ġtra": 1021,
      ")Ċ": 1022,
      "CĠ": 1023,
      "s,ĠandĠ": 1024,
      "echn": 1025,
      "abil": 1026,
      "system": 1027,
      "hear": 1028,
      "start": 1029,
      "ativeĠ": 1030,
      "kingĠ": 1031,
      "soc": 1032,
      "backĠ": 1033,
      "unt": 1034,
      "eachĠ": 1035,
      "lev": 1036,
      "lineĠ": 1037,
      "withĠaĠ": 1038,
      "need": 1039,
      "appl": 1040,
      "foll": 1041,
      "col": 1042,
      "),Ġ": 1043,
      "tern": 1044,
      "count": 1045,
      "IfĠ": 1046,
      "ianĠ": 1047,
      "rect": 1048,
      "actĠ": 1049,
      "fact": 1050,
      "oolĠ": 1051,
      "reallyĠ": 1052,
      "erĠofĠ": 1053,
      "prof": 1054,
      "both": 1055,
      "pur": 1056,
      "canĠbeĠ": 1057,
      "week": 1058,
      "aut": 1059,
      "atur": 1060,
      "bestĠ": 1061,
      "hand": 1062,
      "ric": 1063,
      "fi": 1064,
      "mov": 1065,
      "down": 1066,
      "heal": 1067,
      ",âĢĿĠ": 1068,
      "ser": 1069,
      "progr": 1070,
      "fun": 1071,
      "madeĠ": 1072,
      "itionĠ": 1073,
      "itiesĠ": 1074,
      ".ĊS": 1075,
      "lat": 1076,
      "exc": 1077,
      "ForĠ": 1078,
      "lastĠ": 1079,
      "lead": 1080,
      "struc": 1081,
      "uallyĠ": 1082,
      "IâĢĻ": 1083,
      "asĠaĠ": 1084,
      "youĠcanĠ": 1085,
      "every": 1086,
      "happ": 1087,
      "experi": 1088,
      "edĠandĠ": 1089,
      "commun": 1090,
      "knowĠ": 1091,
      "Ex": 1092,
      "pow": 1093,
      "ok": 1094,
      "fil": 1095,
      "Re": 1096,
      "becauseĠ": 1097,
      "pat": 1098,
      "rightĠ": 1099,
      "asĠtheĠ": 1100,
      "itĠisĠ": 1101,
      "ik": 1102,
      "other": 1103,
      "tt": 1104,
      "helpĠ": 1105,
      "hom": 1106,
      "tsĠ": 1107,
      "person": 1108,
      "erĠandĠ": 1109,
      "ĠtakeĠ": 1110,
      "develop": 1111,
      "seĠ": 1112,
      ".ĠP": 1113,
      "Ad": 1114,
      "gam": 1115,
      "ĠtoĠbeĠ": 1116,
      "\"Ċ": 1117,
      "cap": 1118,
      "Ac": 1119,
      "hav": 1120,
      "new": 1121,
      "az": 1122,
      "sib": 1123,
      "ectionĠ": 1124,
      "ident": 1125,
      "issu": 1126,
      "NewĠ": 1127,
      "artĠ": 1128,
      "betwe": 1129,
      "bre": 1130,
      "ideĠ": 1131,
      "Sh": 1132,
      "ys": 1133,
      "wayĠ": 1134,
      "Tr": 1135,
      "fri": 1136,
      "help": 1137,
      "I'": 1138,
      "dur": 1139,
      "es.Ċ": 1140,
      "web": 1141,
      "del": 1142,
      "ĠthoseĠ": 1143,
      "stillĠ": 1144,
      "sonĠ": 1145,
      "famil": 1146,
      "meric": 1147,
      "val": 1148,
      ".ĠW": 1149,
      "call": 1150,
      "numb": 1151,
      "Bl": 1152,
      "ement": 1153,
      "o,Ġ": 1154,
      "point": 1155,
      "ash": 1156,
      "iseĠ": 1157,
      "show": 1158,
      "greatĠ": 1159,
      "emberĠ": 1160,
      "edĠwithĠ": 1161,
      "liv": 1162,
      "follow": 1163,
      "Americ": 1164,
      "disc": 1165,
      "dep": 1166,
      "giv": 1167,
      "rol": 1168,
      "exam": 1169,
      "ason": 1170,
      "entlyĠ": 1171,
      "itedĠ": 1172,
      "esĠtheĠ": 1173,
      "arm": 1174,
      "whileĠ": 1175,
      "gener": 1176,
      "ry": 1177,
      "Jo": 1178,
      "extĠ": 1179,
      "...": 1180,
      "ivers": 1181,
      "oveĠ": 1182,
      "cons": 1183,
      "ould": 1184,
      "n'tĠ": 1185,
      "incre": 1186,
      "portĠ": 1187,
      "manĠ": 1188,
      "ableĠtoĠ": 1189,
      "gĠ": 1190,
      "aveĠ": 1191,
      "servic": 1192,
      "It": 1193,
      "yĠofĠ": 1194,
      "ustr": 1195,
      "For": 1196,
      "now": 1197,
      "ignĠ": 1198,
      "law": 1199,
      "ress": 1200,
      "Ph": 1201,
      ".ĠWh": 1202,
      "9Ġ": 1203,
      ",Ġ201": 1204,
      "rip": 1205,
      "manag": 1206,
      "appro": 1207,
      "perĠ": 1208,
      "avail": 1209,
      "ighĠ": 1210,
      "qual": 1211,
      "hasĠbeenĠ": 1212,
      "|Ċ|": 1213,
      "cho": 1214,
      "%Ġ": 1215,
      "adv": 1216,
      "someth": 1217,
      "fre": 1218,
      "ationĠofĠ": 1219,
      "edĠaĠ": 1220,
      "âĢĻĠ": 1221,
      "beg": 1222,
      "wr": 1223,
      "ett": 1224,
      ".ĠD": 1225,
      "Pr": 1226,
      "ide": 1227,
      "18": 1228,
      "ittleĠ": 1229,
      "edĠforĠ": 1230,
      "indĠ": 1231,
      "earchĠ": 1232,
      "ularĠ": 1233,
      "tr": 1234,
      "alsĠ": 1235,
      "ation,Ġ": 1236,
      "contin": 1237,
      "ia": 1238,
      "chil": 1239,
      "miss": 1240,
      "edĠonĠ": 1241,
      "fulĠ": 1242,
      ".âĢĿĊ": 1243,
      "ici": 1244,
      "beforeĠ": 1245,
      ".ĠWeĠ": 1246,
      "overn": 1247,
      ".ĠAn": 1248,
      "ww": 1249,
      "ustom": 1250,
      "ieĠ": 1251,
      "view": 1252,
      "ept": 1253,
      "ĠthroughĠ": 1254,
      "right": 1255,
      "complet": 1256,
      "Ġthrough": 1257,
      "Gr": 1258,
      "grou": 1259,
      "goĠ": 1260,
      "ireĠ": 1261,
      "everyĠ": 1262,
      ".ĠHeĠ": 1263,
      "16": 1264,
      "ask": 1265,
      "comeĠ": 1266,
      ".ĠN": 1267,
      "waysĠ": 1268,
      "sal": 1269,
      "earĠ": 1270,
      "erĠtoĠ": 1271,
      "yearĠ": 1272,
      "bothĠ": 1273,
      "well": 1274,
      "ers,Ġ": 1275,
      ",ĠIĠ": 1276,
      ",\"Ġ": 1277,
      "ityĠofĠ": 1278,
      "organ": 1279,
      "12": 1280,
      "50": 1281,
      "import": 1282,
      "clos": 1283,
      "sign": 1284,
      ".ĠO": 1285,
      "reat": 1286,
      "ionalĠ": 1287,
      "âĢĻreĠ": 1288,
      "esĠinĠ": 1289,
      "ally": 1290,
      "partic": 1291,
      "informationĠ": 1292,
      "'Ġ": 1293,
      "able": 1294,
      "âĢĺ": 1295,
      "ott": 1296,
      "jo": 1297,
      "forĠaĠ": 1298,
      "akeĠ": 1299,
      "mus": 1300,
      ".ĠT": 1301,
      "e:Ġ": 1302,
      "didĠ": 1303,
      "eĠthanĠ": 1304,
      "RĠ": 1305,
      "himĠ": 1306,
      "ondĠ": 1307,
      "self": 1308,
      "ern": 1309,
      "rece": 1310,
      "did": 1311,
      "e,ĠandĠ": 1312,
      "spe": 1313,
      ".com": 1314,
      "vari": 1315,
      "urĠ": 1316,
      "empl": 1317,
      "quest": 1318,
      "haveĠbeenĠ": 1319,
      "findĠ": 1320,
      "IN": 1321,
      "shipĠ": 1322,
      "wom": 1323,
      "ĠthenĠ": 1324,
      "differentĠ": 1325,
      "prot": 1326,
      "list": 1327,
      ",00": 1328,
      "andĠt": 1329,
      "curr": 1330,
      "As": 1331,
      "fort": 1332,
      "month": 1333,
      "lessĠ": 1334,
      "vir": 1335,
      "intĠ": 1336,
      "aĠh": 1337,
      "mustĠ": 1338,
      "mightĠ": 1339,
      "wĠ": 1340,
      "rang": 1341,
      "esĠareĠ": 1342,
      "ernĠ": 1343,
      "ningĠ": 1344,
      "edg": 1345,
      "intoĠtheĠ": 1346,
      "igĠ": 1347,
      "wantĠtoĠ": 1348,
      "ax": 1349,
      "lookĠ": 1350,
      "ris": 1351,
      "11": 1352,
      "grow": 1353,
      "grap": 1354,
      "ifĠyouĠ": 1355,
      "rist": 1356,
      "loveĠ": 1357,
      "conc": 1358,
      "inceĠ": 1359,
      "allĠtheĠ": 1360,
      "Par": 1361,
      ".ĊA": 1362,
      "ucc": 1363,
      "itâĢĻsĠ": 1364,
      "alk": 1365,
      "uck": 1366,
      "present": 1367,
      "post": 1368,
      "coll": 1369,
      ".ĊB": 1370,
      "world": 1371,
      "sideĠ": 1372,
      "press": 1373,
      "friend": 1374,
      "aceĠ": 1375,
      "yearsĠ": 1376,
      "MĠ": 1377,
      "LĠ": 1378,
      "esĠthatĠ": 1379,
      "la": 1380,
      "sameĠ": 1381,
      "ailĠ": 1382,
      "design": 1383,
      "Ġthis": 1384,
      "expl": 1385,
      "ĠthinkĠ": 1386,
      "giveĠ": 1387,
      "pa": 1388,
      "needĠtoĠ": 1389,
      ",Ġt": 1390,
      "allow": 1391,
      "assĠ": 1392,
      "Pl": 1393,
      "pt": 1394,
      "aim": 1395,
      "pass": 1396,
      "ingĠinĠ": 1397,
      "withoutĠ": 1398,
      "âĢ¢": 1399,
      "aboutĠtheĠ": 1400,
      "offĠ": 1401,
      "atesĠ": 1402,
      "long": 1403,
      ".ĠL": 1404,
      "alwaysĠ": 1405,
      "AN": 1406,
      "require": 1407,
      "offic": 1408,
      "beli": 1409,
      "larg": 1410,
      "program": 1411,
      "15": 1412,
      "oreĠ": 1413,
      "itĠwasĠ": 1414,
      "30": 1415,
      "proble": 1416,
      "seem": 1417,
      "writ": 1418,
      "downĠ": 1419,
      "custom": 1420,
      "neverĠ": 1421,
      "my": 1422,
      "HeĠ": 1423,
      "dem": 1424,
      "had": 1425,
      "PĠ": 1426,
      "haveĠtoĠ": 1427,
      "Wor": 1428,
      "Col": 1429,
      "ithĠ": 1430,
      "hum": 1431,
      "book": 1432,
      "pert": 1433,
      "invest": 1434,
      "Sp": 1435,
      "US": 1436,
      "10Ġ": 1437,
      "Res": 1438,
      "anotherĠ": 1439,
      "uresĠ": 1440,
      "war": 1441,
      "your": 1442,
      ".ĠInĠ": 1443,
      "Mon": 1444,
      "therĠ": 1445,
      "Br": 1446,
      "OĠ": 1447,
      "report": 1448,
      "Ġtrans": 1449,
      "mill": 1450,
      "consid": 1451,
      "put": 1452,
      "playĠ": 1453,
      "land": 1454,
      "eal": 1455,
      "head": 1456,
      "ingĠforĠ": 1457,
      "ifi": 1458,
      "WhatĠ": 1459,
      "ity,Ġ": 1460,
      "bod": 1461,
      "cert": 1462,
      ",ĠwhichĠ": 1463,
      "rib": 1464,
      "what": 1465,
      "interest": 1466,
      "doesĠ": 1467,
      "AndĠ": 1468,
      "continu": 1469,
      "ah": 1470,
      "job": 1471,
      "feat": 1472,
      "effect": 1473,
      "echnolog": 1474,
      "ekĠ": 1475,
      "y.Ċ": 1476,
      "oper": 1477,
      "eveĠ": 1478,
      "redĠ": 1479,
      "ingĠthatĠ": 1480,
      "nextĠ": 1481,
      "sever": 1482,
      "iqu": 1483,
      "edĠinĠtheĠ": 1484,
      "betweenĠ": 1485,
      "hop": 1486,
      "en,Ġ": 1487,
      "bro": 1488,
      "usingĠ": 1489,
      "doc": 1490,
      "activ": 1491,
      "equ": 1492,
      "ed.Ċ": 1493,
      "first": 1494,
      "donâĢĻtĠ": 1495,
      "si": 1496,
      ".ĠYouĠ": 1497,
      ".ĠE": 1498,
      "s:Ġ": 1499,
      "prom": 1500,
      "direct": 1501,
      "icallyĠ": 1502,
      "eeĠ": 1503,
      "govern": 1504,
      "lef": 1505,
      "ersĠandĠ": 1506,
      "real": 1507,
      "hous": 1508,
      "ool": 1509,
      "aĠm": 1510,
      ".ĠC": 1511,
      "dist": 1512,
      "Ġter": 1513,
      "ith": 1514,
      "pri": 1515,
      "eredĠ": 1516,
      "possib": 1517,
      "goingĠtoĠ": 1518,
      "italĠ": 1519,
      "erg": 1520,
      "rain": 1521,
      "iallyĠ": 1522,
      "oneĠofĠtheĠ": 1523,
      "RE": 1524,
      "lim": 1525,
      "o-": 1526,
      "s.ĠTheĠ": 1527,
      "cat": 1528,
      "phot": 1529,
      ".\"Ċ": 1530,
      "succ": 1531,
      "eĠtoĠtheĠ": 1532,
      "selfĠ": 1533,
      "moreĠthanĠ": 1534,
      "ion,Ġ": 1535,
      "pop": 1536,
      "ribut": 1537,
      "fiel": 1538,
      "rop": 1539,
      "hist": 1540,
      "cle": 1541,
      "elect": 1542,
      "respon": 1543,
      "divid": 1544,
      "ward": 1545,
      "ON": 1546,
      "aroundĠ": 1547,
      "setĠ": 1548,
      "overĠtheĠ": 1549,
      "199": 1550,
      "sĠofĠtheĠ": 1551,
      ",Ċ": 1552,
      "siteĠ": 1553,
      "iet": 1554,
      ",ĠM": 1555,
      "Univers": 1556,
      "placeĠ": 1557,
      "eat": 1558,
      "just": 1559,
      "youĠareĠ": 1560,
      "highĠ": 1561,
      "thingĠ": 1562,
      "ankĠ": 1563,
      "chec": 1564,
      "iousĠ": 1565,
      "includingĠ": 1566,
      "eirĠ": 1567,
      "ThereĠ": 1568,
      "auth": 1569,
      "hereĠ": 1570,
      "âĢĶĠ": 1571,
      "edĠthatĠ": 1572,
      "homeĠ": 1573,
      "ven": 1574,
      "pract": 1575,
      "pi": 1576,
      "vide": 1577,
      ".ĠIfĠ": 1578,
      "sĠ(": 1579,
      "putĠ": 1580,
      ".S": 1581,
      "ounc": 1582,
      "on-": 1583,
      "edĠbyĠtheĠ": 1584,
      "red": 1585,
      "some": 1586,
      ".ĊâĢľ": 1587,
      "educ": 1588,
      "room": 1589,
      "bor": 1590,
      "mil": 1591,
      "businessĠ": 1592,
      "pay": 1593,
      "ativ": 1594,
      "char": 1595,
      "isĠnotĠ": 1596,
      "emĠ": 1597,
      "enn": 1598,
      "build": 1599,
      "ToĠ": 1600,
      "profess": 1601,
      "ingĠofĠ": 1602,
      "Sc": 1603,
      "olv": 1604,
      "ugh": 1605,
      "graph": 1606,
      "earlyĠ": 1607,
      "market": 1608,
      "Ap": 1609,
      "aĠlotĠ": 1610,
      "odĠ": 1611,
      "formĠ": 1612,
      "asĠwellĠ": 1613,
      "ual": 1614,
      "ogĠ": 1615,
      "sĠonĠ": 1616,
      "childr": 1617,
      "conn": 1618,
      "caus": 1619,
      "memb": 1620,
      "product": 1621,
      "wer": 1622,
      "Ġthough": 1623,
      "suchĠasĠ": 1624,
      "applic": 1625,
      "Le": 1626,
      "ofĠthisĠ": 1627,
      "eĠthisĠ": 1628,
      "Nor": 1629,
      "Joh": 1630,
      "ben": 1631,
      "ular": 1632,
      "open": 1633,
      "ĠthreeĠ": 1634,
      "le,Ġ": 1635,
      "struct": 1636,
      "Cent": 1637,
      "ly,Ġ": 1638,
      ".ĠTheyĠ": 1639,
      "ionĠofĠ": 1640,
      "ies,Ġ": 1641,
      "gotĠ": 1642,
      "does": 1643,
      "itut": 1644,
      "addition": 1645,
      "ourc": 1646,
      "imeĠ": 1647,
      "'reĠ": 1648,
      "Pres": 1649,
      "offer": 1650,
      "lifeĠ": 1651,
      "hour": 1652,
      "ine": 1653,
      ".ĠâĢľ": 1654,
      ".ĠF": 1655,
      "employ": 1656,
      "eĠto": 1657,
      "it'sĠ": 1658,
      "plyĠ": 1659,
      "experienc": 1660,
      ".ĊM": 1661,
      "etherĠ": 1662,
      "readyĠ": 1663,
      "sens": 1664,
      "shar": 1665,
      "result": 1666,
      "14": 1667,
      "sĠwithĠ": 1668,
      "rele": 1669,
      "Car": 1670,
      "ities": 1671,
      "vent": 1672,
      "erc": 1673,
      "Di": 1674,
      "stateĠ": 1675,
      ".ĠAĠ": 1676,
      "provideĠ": 1677,
      "intern": 1678,
      "izeĠ": 1679,
      "ultĠ": 1680,
      ".ĠR": 1681,
      "ush": 1682,
      "identĠ": 1683,
      "support": 1684,
      "don'tĠ": 1685,
      "increas": 1686,
      "rest": 1687,
      "partĠ": 1688,
      "somethingĠ": 1689,
      ",ĠaĠ": 1690,
      "outĠtheĠ": 1691,
      "hard": 1692,
      "edĠtoĠtheĠ": 1693,
      "haveĠaĠ": 1694,
      "TH": 1695,
      "init": 1696,
      "ures": 1697,
      "nor": 1698,
      "asonĠ": 1699,
      "prov": 1700,
      "ump": 1701,
      "30Ġ": 1702,
      "lov": 1703,
      "ner": 1704,
      ".ĠIn": 1705,
      "after": 1706,
      ",000Ġ": 1707,
      "hal": 1708,
      "light": 1709,
      "dition": 1710,
      "ingĠt": 1711,
      "saf": 1712,
      "wher": 1713,
      "low": 1714,
      "sĠt": 1715,
      "sĠaĠ": 1716,
      "ablyĠ": 1717,
      "Man": 1718,
      "s.": 1719,
      "icsĠ": 1720,
      "word": 1721,
      "ityĠtoĠ": 1722,
      "set": 1723,
      "igin": 1724,
      "IĠwasĠ": 1725,
      "plan": 1726,
      "met": 1727,
      "ilyĠ": 1728,
      "irc": 1729,
      "e.ĠTheĠ": 1730,
      "find": 1731,
      "fectĠ": 1732,
      "great": 1733,
      ",ĠtheyĠ": 1734,
      "stu": 1735,
      "organiz": 1736,
      "Christ": 1737,
      "uss": 1738,
      "ockĠ": 1739,
      "fron": 1740,
      "earch": 1741,
      "eĠtr": 1742,
      "aĠfewĠ": 1743,
      "maj": 1744,
      "17": 1745,
      "onom": 1746,
      "ortĠ": 1747,
      "imag": 1748,
      "careĠ": 1749,
      "nec": 1750,
      "WhenĠ": 1751,
      ",ĠS": 1752,
      "availableĠ": 1753,
      "class": 1754,
      "iver": 1755,
      "eĠtheyĠ": 1756,
      "ink": 1757,
      "Or": 1758,
      "usedĠ": 1759,
      "ber": 1760,
      "uĠ": 1761,
      "opp": 1762,
      "20Ġ": 1763,
      "pris": 1764,
      "access": 1765,
      "tonĠ": 1766,
      "aĠandĠ": 1767,
      "ationĠandĠ": 1768,
      "ioĠ": 1769,
      "feel": 1770,
      "25": 1771,
      "pric": 1772,
      "inĠthisĠ": 1773,
      "sĠinĠtheĠ": 1774,
      "raf": 1775,
      "onlineĠ": 1776,
      ".ĠButĠ": 1777,
      "yl": 1778,
      "sinceĠ": 1779,
      "solut": 1780,
      "...Ġ": 1781,
      "minut": 1782,
      "Gre": 1783,
      "workingĠ": 1784,
      "eringĠ": 1785,
      "worldĠ": 1786,
      "expect": 1787,
      "al,Ġ": 1788,
      "comput": 1789,
      "Be": 1790,
      "We": 1791,
      "longĠ": 1792,
      "U.S": 1793,
      "00Ġ": 1794,
      "oot": 1795,
      "ĠtooĠ": 1796,
      ".ĠIt": 1797,
      "And": 1798,
      "ebr": 1799,
      "letĠ": 1800,
      "compan": 1801,
      "net": 1802,
      "ĊTheĠ": 1803,
      "around": 1804,
      ".Ġ\"": 1805,
      "ER": 1806,
      "akĠ": 1807,
      "IĠamĠ": 1808,
      "viron": 1809,
      "cover": 1810,
      "foundĠ": 1811,
      "jectĠ": 1812,
      "underĠ": 1813,
      "will": 1814,
      "on,Ġ": 1815,
      "againstĠ": 1816,
      "iat": 1817,
      "less": 1818,
      "alleng": 1819,
      "roll": 1820,
      "Qu": 1821,
      "ĠtoĠt": 1822,
      "wouldĠbeĠ": 1823,
      "happen": 1824,
      "ient": 1825,
      "even": 1826,
      "event": 1827,
      "foc": 1828,
      "osĠ": 1829,
      "urnĠ": 1830,
      ".ĊH": 1831,
      "artic": 1832,
      "health": 1833,
      "example": 1834,
      "charg": 1835,
      "ever,Ġ": 1836,
      "appear": 1837,
      "mayĠbeĠ": 1838,
      "IĠhaveĠ": 1839,
      "apĠ": 1840,
      "portun": 1841,
      "publicĠ": 1842,
      "grad": 1843,
      ",ĠthisĠ": 1844,
      "ract": 1845,
      "claim": 1846,
      "freeĠ": 1847,
      "TheyĠ": 1848,
      "OneĠ": 1849,
      "13": 1850,
      "companyĠ": 1851,
      "basedĠ": 1852,
      "imp": 1853,
      "day,Ġ": 1854,
      "Cont": 1855,
      "esĠforĠ": 1856,
      "i-": 1857,
      "individ": 1858,
      "level": 1859,
      "airĠ": 1860,
      "1.": 1861,
      "wa": 1862,
      "fav": 1863,
      "hold": 1864,
      "oleĠ": 1865,
      "nes": 1866,
      "YourĠ": 1867,
      "feelĠ": 1868,
      "ledg": 1869,
      "gameĠ": 1870,
      "ely": 1871,
      "ountĠ": 1872,
      "meet": 1873,
      "AT": 1874,
      "heĠwasĠ": 1875,
      "itch": 1876,
      "ers.Ġ": 1877,
      "Per": 1878,
      "vol": 1879,
      "Oc": 1880,
      "esp": 1881,
      "problem": 1882,
      "mi": 1883,
      "headĠ": 1884,
      "Fl": 1885,
      "pag": 1886,
      "aleĠ": 1887,
      "endingĠ": 1888,
      "iorĠ": 1889,
      "found": 1890,
      "IâĢĻmĠ": 1891,
      ".Ċ\"": 1892,
      "Ġtog": 1893,
      "New": 1894,
      "good": 1895,
      "ificĠ": 1896,
      "compl": 1897,
      "sam": 1898,
      "pot": 1899,
      "ĠM": 1900,
      "benef": 1901,
      "eâĢĻsĠ": 1902,
      "Ġthey": 1903,
      "onĠaĠ": 1904,
      "ofĠaĠ": 1905,
      "fund": 1906,
      "return": 1907,
      "ins": 1908,
      "Ġthink": 1909,
      "valu": 1910,
      "Rep": 1911,
      "timeĠ": 1912,
      "ĊS": 1913,
      "project": 1914,
      "readĠ": 1915,
      "opportun": 1916,
      "izedĠ": 1917,
      "keepĠ": 1918,
      "severalĠ": 1919,
      "mater": 1920,
      "los": 1921,
      "youn": 1922,
      "Comm": 1923,
      "youĠhaveĠ": 1924,
      "ve": 1925,
      "compet": 1926,
      "oub": 1927,
      "I'mĠ": 1928,
      "mean": 1929,
      "awayĠ": 1930,
      "forc": 1931,
      "BĠ": 1932,
      "lesĠ": 1933,
      "healthĠ": 1934,
      "localĠ": 1935,
      "wasĠtheĠ": 1936,
      "der": 1937,
      "detail": 1938,
      ".ĠAndĠ": 1939,
      "ste": 1940,
      ")ĠandĠ": 1941,
      ",ĠtoĠ": 1942,
      "desc": 1943,
      "charact": 1944,
      "cam": 1945,
      "forman": 1946,
      "Jun": 1947,
      "conf": 1948,
      "supportĠ": 1949,
      "alreadyĠ": 1950,
      "acros": 1951,
      "ali": 1952,
      "ing.Ċ": 1953,
      "ograph": 1954,
      "Ġther": 1955,
      "idd": 1956,
      "isĠanĠ": 1957,
      "oftenĠ": 1958,
      "realĠ": 1959,
      "beaut": 1960,
      "Indi": 1961,
      "itor": 1962,
      "ich": 1963,
      "receiv": 1964,
      "augh": 1965,
      "Yor": 1966,
      "stre": 1967,
      "-t": 1968,
      "anal": 1969,
      "makingĠ": 1970,
      "El": 1971,
      "it,Ġ": 1972,
      "itiveĠ": 1973,
      "raw": 1974,
      "alkĠ": 1975,
      "option": 1976,
      "cli": 1977,
      ".Ġ(": 1978,
      "purch": 1979,
      "dom": 1980,
      "outĠofĠ": 1981,
      "Cor": 1982,
      "du": 1983,
      "sug": 1984,
      "|Ġ": 1985,
      "process": 1986,
      "roomĠ": 1987,
      "has": 1988,
      "reduc": 1989,
      ".ĠG": 1990,
      "fut": 1991,
      "ishedĠ": 1992,
      "tĠandĠ": 1993,
      "ityĠandĠ": 1994,
      "experienceĠ": 1995,
      "buil": 1996,
      "untilĠ": 1997,
      "bin": 1998,
      "Ġtyp": 1999,
      "reason": 2000,
      "group": 2001,
      "bar": 2002,
      "Intern": 2003,
      "becomeĠ": 2004,
      "ron": 2005,
      "sw": 2006,
      "AmericanĠ": 2007,
      "yingĠ": 2008,
      "sĠorĠ": 2009,
      "AR": 2010,
      "fourĠ": 2011,
      "rad": 2012,
      "dataĠ": 2013,
      "priv": 2014,
      "sor": 2015,
      "sum": 2016,
      "origin": 2017,
      "YĠ": 2018,
      "socialĠ": 2019,
      "refer": 2020,
      "night": 2021,
      "cost": 2022,
      ",ĠthereĠ": 2023,
      "Co": 2024,
      "Med": 2025,
      "rolĠ": 2026,
      "bur": 2027,
      ",ĠorĠ": 2028,
      "secondĠ": 2029,
      "22": 2030,
      "scre": 2031,
      "season": 2032,
      "changeĠ": 2033,
      "liveĠ": 2034,
      "hon": 2035,
      "rac": 2036,
      "ism": 2037,
      "challeng": 2038,
      "viewĠ": 2039,
      "mult": 2040,
      "centĠ": 2041,
      "fur": 2042,
      "âĢĻllĠ": 2043,
      "ator": 2044,
      "whyĠ": 2045,
      "record": 2046,
      "Ro": 2047,
      "eryĠ": 2048,
      "te": 2049,
      "fullĠ": 2050,
      "econom": 2051,
      "propert": 2052,
      "uredĠ": 2053,
      "numberĠofĠ": 2054,
      "axĠ": 2055,
      "outhĠ": 2056,
      "fic": 2057,
      "minist": 2058,
      "an,Ġ": 2059,
      "actuallyĠ": 2060,
      "--Ġ": 2061,
      "eit": 2062,
      "isĠtoĠ": 2063,
      "ensiveĠ": 2064,
      "systemĠ": 2065,
      ".ĊD": 2066,
      "showĠ": 2067,
      ".,Ġ": 2068,
      "mentsĠ": 2069,
      "sayĠ": 2070,
      "ibleĠ": 2071,
      "serviceĠ": 2072,
      "camp": 2073,
      "sing": 2074,
      "piec": 2075,
      "func": 2076,
      "releas": 2077,
      "mag": 2078,
      "phys": 2079,
      "cult": 2080,
      "needĠ": 2081,
      "environ": 2082,
      "irdĠ": 2083,
      "Ġteam": 2084,
      "ary": 2085,
      "ButĠ": 2086,
      "pack": 2087,
      "mom": 2088,
      "upĠtoĠ": 2089,
      "driv": 2090,
      "lightĠ": 2091,
      "iredĠ": 2092,
      "eptĠ": 2093,
      "polic": 2094,
      "Sch": 2095,
      "FĠ": 2096,
      "betterĠ": 2097,
      "GĠ": 2098,
      "ection": 2099,
      "keep": 2100,
      "/Ġ": 2101,
      "ermin": 2102,
      "includeĠ": 2103,
      "accord": 2104,
      "IS": 2105,
      "performan": 2106,
      "ull": 2107,
      "apt": 2108,
      "e,ĠtheĠ": 2109,
      "24": 2110,
      "createĠ": 2111,
      "natur": 2112,
      ".ĊTh": 2113,
      "personĠ": 2114,
      "Bo": 2115,
      "Jan": 2116,
      "littleĠ": 2117,
      "vert": 2118,
      "www": 2119,
      "joy": 2120,
      ",ĠweĠ": 2121,
      "dri": 2122,
      "spir": 2123,
      "school": 2124,
      "polit": 2125,
      "bookĠ": 2126,
      "doĠnotĠ": 2127,
      "UnitedĠ": 2128,
      "ofĠt": 2129,
      "ally,Ġ": 2130,
      "Ġthere": 2131,
      "ĠthroughĠtheĠ": 2132,
      "geĠ": 2133,
      "Ġtrad": 2134,
      "ather": 2135,
      "knownĠ": 2136,
      "schoolĠ": 2137,
      "fiveĠ": 2138,
      "100": 2139,
      "ofĠtheirĠ": 2140,
      "leastĠ": 2141,
      ".ĠThereĠ": 2142,
      "gir": 2143,
      "esĊ": 2144,
      "startĠ": 2145,
      "NewĠYor": 2146,
      "hor": 2147,
      "industr": 2148,
      "waterĠ": 2149,
      "zĠ": 2150,
      "ical": 2151,
      "Dec": 2152,
      "landĠ": 2153,
      "relation": 2154,
      "Har": 2155,
      "encyĠ": 2156,
      "Can": 2157,
      "fterĠ": 2158,
      "âĢĻveĠ": 2159,
      "spect": 2160,
      "meas": 2161,
      "gettingĠ": 2162,
      "involv": 2163,
      "learn": 2164,
      "EN": 2165,
      "igg": 2166,
      "rav": 2167,
      "makesĠ": 2168,
      "asĠwellĠasĠ": 2169,
      "KĠ": 2170,
      "peop": 2171,
      "Engl": 2172,
      "Count": 2173,
      "eĠtheirĠ": 2174,
      "groupĠ": 2175,
      "www.": 2176,
      "OurĠ": 2177,
      "Ab": 2178,
      "edĠatĠ": 2179,
      "Stat": 2180,
      "cal": 2181,
      "comingĠ": 2182,
      "Gu": 2183,
      "uaryĠ": 2184,
      "outh": 2185,
      "ated": 2186,
      "StateĠ": 2187,
      "--": 2188,
      "kindĠ": 2189,
      "recomm": 2190,
      "which": 2191,
      "tĠtheĠ": 2192,
      "sĠfromĠ": 2193,
      ".âĢĿĠ": 2194,
      "Ġtrain": 2195,
      ",ĠyouĠ": 2196,
      "circ": 2197,
      "1-": 2198,
      "ulyĠ": 2199,
      "cred": 2200,
      "financ": 2201,
      ",ĠthatĠ": 2202,
      "e'sĠ": 2203,
      "youĠtoĠ": 2204,
      "weekĠ": 2205,
      "notĠbeĠ": 2206,
      "aĠlittleĠ": 2207,
      "Nov": 2208,
      "//": 2209,
      "lab": 2210,
      "wareĠ": 2211,
      "ingĠtoĠtheĠ": 2212,
      "edĠasĠ": 2213,
      "whil": 2214,
      "ouslyĠ": 2215,
      "bi": 2216,
      "VĠ": 2217,
      "is,Ġ": 2218,
      "importantĠ": 2219,
      "pap": 2220,
      "agre": 2221,
      "leftĠ": 2222,
      "hol": 2223,
      "shouldĠbeĠ": 2224,
      "oughtĠ": 2225,
      "link": 2226,
      "er.Ċ": 2227,
      "AsĠ": 2228,
      "win": 2229,
      "osp": 2230,
      "AllĠ": 2231,
      "followingĠ": 2232,
      "cut": 2233,
      "eralĠ": 2234,
      "ldĠ": 2235,
      "calledĠ": 2236,
      "ogn": 2237,
      "familyĠ": 2238,
      "wind": 2239,
      "youâĢĻreĠ": 2240,
      "Dis": 2241,
      "Serv": 2242,
      "efĠ": 2243,
      "selv": 2244,
      "IC": 2245,
      "NationalĠ": 2246,
      "kid": 2247,
      "leaseĠ": 2248,
      "when": 2249,
      "Sup": 2250,
      "offerĠ": 2251,
      "ttp": 2252,
      "Eu": 2253,
      "condition": 2254,
      "smallĠ": 2255,
      "runĠ": 2256,
      "havingĠ": 2257,
      "dig": 2258,
      "soft": 2259,
      "power": 2260,
      "Rec": 2261,
      "ĠteamĠ": 2262,
      "mad": 2263,
      "Ġthing": 2264,
      "openĠ": 2265,
      "://": 2266,
      "ĠtheyĠareĠ": 2267,
      "http": 2268,
      "Dr": 2269,
      "Web": 2270,
      "mentĠofĠ": 2271,
      "akingĠ": 2272,
      "mot": 2273,
      "ressĠ": 2274,
      "strat": 2275,
      "50Ġ": 2276,
      "aur": 2277,
      "callĠ": 2278,
      "ĠtheĠt": 2279,
      "OR": 2280,
      "rul": 2281,
      "areĠtheĠ": 2282,
      "believeĠ": 2283,
      "Mic": 2284,
      "wasĠaĠ": 2285,
      "eĠthat": 2286,
      "necess": 2287,
      "60": 2288,
      "aver": 2289,
      "les": 2290,
      "decis": 2291,
      "levelĠ": 2292,
      "IfĠyouĠ": 2293,
      "2.": 2294,
      "AC": 2295,
      "40": 2296,
      "ument": 2297,
      "aĠlotĠofĠ": 2298,
      "s,ĠtheĠ": 2299,
      "ienceĠ": 2300,
      "stitut": 2301,
      "che": 2302,
      "faceĠ": 2303,
      "firm": 2304,
      "non-": 2305,
      "author": 2306,
      "videoĠ": 2307,
      "onceĠ": 2308,
      "How": 2309,
      "sureĠ": 2310,
      "lex": 2311,
      "personalĠ": 2312,
      "millionĠ": 2313,
      ").Ċ": 2314,
      "hy": 2315,
      "exist": 2316,
      "Ġthan": 2317,
      "beh": 2318,
      "prett": 2319,
      "iel": 2320,
      "ordĠ": 2321,
      "visit": 2322,
      "howĠtoĠ": 2323,
      "AS": 2324,
      "beĠtheĠ": 2325,
      "duringĠ": 2326,
      "Bar": 2327,
      "e,ĠbutĠ": 2328,
      "sex": 2329,
      ">Ġ": 2330,
      "jur": 2331,
      "roc": 2332,
      "researchĠ": 2333,
      "12Ġ": 2334,
      "cop": 2335,
      "action": 2336,
      "pointĠ": 2337,
      ".ĠSheĠ": 2338,
      "etim": 2339,
      "wayĠtoĠ": 2340,
      "sĊ-Ġ": 2341,
      "currentĠ": 2342,
      "Comp": 2343,
      "Reg": 2344,
      "uralĠ": 2345,
      "conduc": 2346,
      "goingĠ": 2347,
      "Pol": 2348,
      "duringĠtheĠ": 2349,
      "qualityĠ": 2350,
      "AM": 2351,
      "Dep": 2352,
      "review": 2353,
      "step": 2354,
      "ay,Ġ": 2355,
      "sess": 2356,
      "lookingĠ": 2357,
      ":Ċ-Ġ": 2358,
      "becom": 2359,
      "espec": 2360,
      "JohnĠ": 2361,
      "yĠtheĠ": 2362,
      "ingĠthisĠ": 2363,
      "controlĠ": 2364,
      "bodyĠ": 2365,
      "websit": 2366,
      "entialĠ": 2367,
      "foodĠ": 2368,
      "gest": 2369,
      "vot": 2370,
      "imĠ": 2371,
      "cours": 2372,
      "wond": 2373,
      "peopl": 2374,
      ".m": 2375,
      "Mc": 2376,
      "Sy": 2377,
      "illi": 2378,
      "studentsĠ": 2379,
      "pleaseĠ": 2380,
      "men": 2381,
      "inĠtheirĠ": 2382,
      "Oct": 2383,
      "fill": 2384,
      "erĠisĠ": 2385,
      "Ed": 2386,
      "err": 2387,
      "areaĠ": 2388,
      "cameĠ": 2389,
      "Ġtw": 2390,
      "rais": 2391,
      "account": 2392,
      "energ": 2393,
      "model": 2394,
      "es,ĠandĠ": 2395,
      "actionĠ": 2396,
      "item": 2397,
      "ton": 2398,
      "iew": 2399,
      "sĠwereĠ": 2400,
      "determin": 2401,
      "bill": 2402,
      "only": 2403,
      "watch": 2404,
      "question": 2405,
      "inkĠ": 2406,
      "ES": 2407,
      "nessĠ": 2408,
      "Off": 2409,
      "key": 2410,
      "decid": 2411,
      "ian": 2412,
      "mis": 2413,
      "sĠtoĠtheĠ": 2414,
      "anim": 2415,
      "favor": 2416,
      "ID": 2417,
      "flu": 2418,
      "15Ġ": 2419,
      "direc": 2420,
      "consider": 2421,
      "histor": 2422,
      "knowledg": 2423,
      "nerĠ": 2424,
      "or,Ġ": 2425,
      "oneĠofĠ": 2426,
      ".ĠAl": 2427,
      "last": 2428,
      "unch": 2429,
      ",ĠthenĠ": 2430,
      "icesĠ": 2431,
      "productĠ": 2432,
      "vo": 2433,
      "imm": 2434,
      "dam": 2435,
      "doneĠ": 2436,
      "wentĠ": 2437,
      "Ġtri": 2438,
      "almostĠ": 2439,
      "ardsĠ": 2440,
      "wardĠ": 2441,
      "endedĠ": 2442,
      "won": 2443,
      "yleĠ": 2444,
      "ullĠ": 2445,
      "bĠ": 2446,
      "meth": 2447,
      "sport": 2448,
      "ersĠareĠ": 2449,
      "De": 2450,
      "ourn": 2451,
      "got": 2452,
      "audi": 2453,
      "childrenĠ": 2454,
      "keyĠ": 2455,
      "mentalĠ": 2456,
      "enseĠ": 2457,
      "beautif": 2458,
      "OU": 2459,
      "atorĠ": 2460,
      "load": 2461,
      "entalĠ": 2462,
      "ikeĠ": 2463,
      "Bu": 2464,
      "clear": 2465,
      "kill": 2466,
      "wid": 2467,
      "ofĠtheseĠ": 2468,
      "spac": 2469,
      "success": 2470,
      "'llĠ": 2471,
      "secur": 2472,
      "HowĠ": 2473,
      "iqueĠ": 2474,
      "majorĠ": 2475,
      "mind": 2476,
      "t,Ġ": 2477,
      "isĠthatĠ": 2478,
      "andĠthenĠ": 2479,
      "Fac": 2480,
      "cod": 2481,
      "standĠ": 2482,
      "ientĠ": 2483,
      "er-": 2484,
      ".ĠForĠ": 2485,
      "ingĠwithĠ": 2486,
      "doesĠnotĠ": 2487,
      "gen": 2488,
      "may": 2489,
      "edĠfromĠ": 2490,
      "marketĠ": 2491,
      "enjoy": 2492,
      "humanĠ": 2493,
      "MayĠ": 2494,
      "pict": 2495,
      "itĠtoĠ": 2496,
      "angu": 2497,
      "maint": 2498,
      "cel": 2499,
      "quick": 2500,
      "mem": 2501,
      "noth": 2502,
      "athĠ": 2503,
      "business": 2504,
      "bigĠ": 2505,
      "hot": 2506,
      ".ĊIĠ": 2507,
      "eĠtim": 2508,
      "saysĠ": 2509,
      "prettyĠ": 2510,
      "23": 2511,
      "MyĠ": 2512,
      "No": 2513,
      "ĠthingsĠ": 2514,
      "ilityĠ": 2515,
      "combin": 2516,
      "diffic": 2517,
      "rot": 2518,
      "neyĠ": 2519,
      "atelyĠ": 2520,
      "programĠ": 2521,
      "fieldĠ": 2522,
      "WithĠ": 2523,
      "hib": 2524,
      "sett": 2525,
      "usedĠtoĠ": 2526,
      "remain": 2527,
      "2-": 2528,
      "tyĠ": 2529,
      "inĠyourĠ": 2530,
      "seenĠ": 2531,
      "80": 2532,
      "round": 2533,
      "butĠtheĠ": 2534,
      "ItâĢĻsĠ": 2535,
      "urs": 2536,
      "leyĠ": 2537,
      "someoneĠ": 2538,
      "crit": 2539,
      "Aug": 2540,
      "erĠforĠ": 2541,
      "no": 2542,
      "staf": 2543,
      "weĠareĠ": 2544,
      "Chin": 2545,
      "dateĠ": 2546,
      "empt": 2547,
      "pastĠ": 2548,
      "uch": 2549,
      "would": 2550,
      "ashĠ": 2551,
      "ether": 2552,
      "enough": 2553,
      "compar": 2554,
      "particip": 2555,
      "uk": 2556,
      "rid": 2557,
      "and,Ġ": 2558,
      "moveĠ": 2559,
      "eful": 2560,
      "sav": 2561,
      "governmentĠ": 2562,
      "Apr": 2563,
      "unĠ": 2564,
      "21": 2565,
      "Min": 2566,
      "cy": 2567,
      "ralĠ": 2568,
      "moneyĠ": 2569,
      "improv": 2570,
      "e.ĠS": 2571,
      "farĠ": 2572,
      "daysĠ": 2573,
      "understand": 2574,
      "ifiedĠ": 2575,
      "winn": 2576,
      "contactĠ": 2577,
      ".ĠJ": 2578,
      "ital": 2579,
      "atĠleastĠ": 2580,
      "fig": 2581,
      "menĠ": 2582,
      "pen": 2583,
      "askĠ": 2584,
      "nameĠ": 2585,
      "ers.Ċ": 2586,
      "nightĠ": 2587,
      "wantĠ": 2588,
      ",ĠC": 2589,
      "esĠ(": 2590,
      "norm": 2591,
      "squ": 2592,
      "ingĠyourĠ": 2593,
      "percentĠ": 2594,
      "IT": 2595,
      "partĠofĠ": 2596,
      "important": 2597,
      "houseĠ": 2598,
      "esĠaĠ": 2599,
      "quiteĠ": 2600,
      "far": 2601,
      "ues": 2602,
      "soci": 2603,
      "eitherĠ": 2604,
      "Te": 2605,
      "ru": 2606,
      "ricĠ": 2607,
      "ĠthatĠisĠ": 2608,
      "powerĠ": 2609,
      "bit": 2610,
      "imin": 2611,
      "bal": 2612,
      "otalĠ": 2613,
      "interv": 2614,
      "regist": 2615,
      "communic": 2616,
      "care": 2617,
      "Am": 2618,
      "Mus": 2619,
      "aroundĠtheĠ": 2620,
      "Rev": 2621,
      "specialĠ": 2622,
      "AL": 2623,
      "mess": 2624,
      "addĠ": 2625,
      "designĠ": 2626,
      "Gl": 2627,
      "xim": 2628,
      "Ġturn": 2629,
      "purpos": 2630,
      "ersĠtoĠ": 2631,
      "iesĠandĠ": 2632,
      "regard": 2633,
      "Ġtoday": 2634,
      "past": 2635,
      "plat": 2636,
      "establ": 2637,
      "achi": 2638,
      "sen": 2639,
      "comesĠ": 2640,
      "oog": 2641,
      "ismĠ": 2642,
      "unn": 2643,
      "ouse": 2644,
      "responsib": 2645,
      "raĠ": 2646,
      ",ĠitĠ": 2647,
      "...Ċ": 2648,
      "skill": 2649,
      "connect": 2650,
      "antsĠ": 2651,
      "fullyĠ": 2652,
      "youngĠ": 2653,
      "road": 2654,
      "material": 2655,
      "payĠ": 2656,
      "postĠ": 2657,
      "alongĠ": 2658,
      "rev": 2659,
      "recogn": 2660,
      "Ġtry": 2661,
      "ecut": 2662,
      "best": 2663,
      "contain": 2664,
      "probablyĠ": 2665,
      "seasonĠ": 2666,
      "surv": 2667,
      "field": 2668,
      "especiallyĠ": 2669,
      "wholeĠ": 2670,
      "jobĠ": 2671,
      "people": 2672,
      "har": 2673,
      "uckĠ": 2674,
      "Mor": 2675,
      "28": 2676,
      "Dav": 2677,
      "esĠinĠtheĠ": 2678,
      "haveĠtheĠ": 2679,
      ".ĠHow": 2680,
      "Sec": 2681,
      "short": 2682,
      "variousĠ": 2683,
      "studi": 2684,
      "ionĠandĠ": 2685,
      "check": 2686,
      "'veĠ": 2687,
      "function": 2688,
      "kindĠofĠ": 2689,
      "Rob": 2690,
      "Up": 2691,
      "rationĠ": 2692,
      "etsĠ": 2693,
      "assoc": 2694,
      "better": 2695,
      "NoĠ": 2696,
      "withinĠ": 2697,
      "Fin": 2698,
      "fail": 2699,
      "etc": 2700,
      "doingĠ": 2701,
      "aĠsm": 2702,
      "Ge": 2703,
      "situ": 2704,
      "atherĠ": 2705,
      "cou": 2706,
      "onĠyourĠ": 2707,
      "abilityĠ": 2708,
      "ark": 2709,
      "purchas": 2710,
      "*Ġ": 2711,
      "Don": 2712,
      "Ev": 2713,
      "eed": 2714,
      "io": 2715,
      "Ã©": 2716,
      "erĠinĠ": 2717,
      "whenĠtheĠ": 2718,
      "rainĠ": 2719,
      "ipp": 2720,
      "Frid": 2721,
      "sle": 2722,
      "indic": 2723,
      "strateg": 2724,
      "ĠtoĠaĠ": 2725,
      "company": 2726,
      "pan": 2727,
      "yĠt": 2728,
      "0.": 2729,
      "medi": 2730,
      "11Ġ": 2731,
      "arch": 2732,
      "omat": 2733,
      "roduc": 2734,
      "rap": 2735,
      "ensĠ": 2736,
      "e.ĠTh": 2737,
      "groundĠ": 2738,
      "hasĠaĠ": 2739,
      "Acc": 2740,
      "drug": 2741,
      "fast": 2742,
      "Us": 2743,
      "costĠ": 2744,
      "announc": 2745,
      "aren": 2746,
      "legalĠ": 2747,
      "break": 2748,
      "deliver": 2749,
      "ateĠtheĠ": 2750,
      "e.ĠIĠ": 2751,
      "presentĠ": 2752,
      "Ġtrav": 2753,
      "perfectĠ": 2754,
      "lay": 2755,
      "obalĠ": 2756,
      "]Ġ": 2757,
      ",ĠB": 2758,
      "merĠ": 2759,
      "Canad": 2760,
      "ingĊ": 2761,
      "s.ĠS": 2762,
      "ball": 2763,
      "ballĠ": 2764,
      "host": 2765,
      "interestĠ": 2766,
      "ĠthatĠtheyĠ": 2767,
      "+Ġ": 2768,
      "aint": 2769,
      "atureĠ": 2770,
      "represent": 2771,
      "print": 2772,
      "uth": 2773,
      "CO": 2774,
      "orĠofĠ": 2775,
      "public": 2776,
      "suggest": 2777,
      "Fir": 2778,
      "Des": 2779,
      "handĠ": 2780,
      "heldĠ": 2781,
      "forĠyourĠ": 2782,
      "below": 2783,
      "OnĠ": 2784,
      "egr": 2785,
      "27": 2786,
      "reli": 2787,
      "plann": 2788,
      "install": 2789,
      "usuallyĠ": 2790,
      "adem": 2791,
      "aboveĠ": 2792,
      "e.ĊTheĠ": 2793,
      "swe": 2794,
      "hic": 2795,
      "position": 2796,
      "MarchĠ": 2797,
      "edĠt": 2798,
      "clus": 2799,
      "ingĠtheirĠ": 2800,
      "ift": 2801,
      "s.ĠTh": 2802,
      "InĠtheĠ": 2803,
      "whichĠisĠ": 2804,
      "Is": 2805,
      "previ": 2806,
      "26": 2807,
      "lowĠ": 2808,
      ".ĊP": 2809,
      "deal": 2810,
      "mainĠ": 2811,
      "checkĠ": 2812,
      "could": 2813,
      "his": 2814,
      "pleas": 2815,
      "discuss": 2816,
      "lawĠ": 2817,
      "ipl": 2818,
      "sell": 2819,
      "ess,Ġ": 2820,
      ".ĊL": 2821,
      "special": 2822,
      "simplyĠ": 2823,
      "concern": 2824,
      "Im": 2825,
      "alu": 2826,
      "onĠS": 2827,
      "Em": 2828,
      "ouch": 2829,
      "eventĠ": 2830,
      "caseĠ": 2831,
      "ationĠofĠtheĠ": 2832,
      "ourceĠ": 2833,
      "board": 2834,
      "didnâĢĻtĠ": 2835,
      "rateĠ": 2836,
      "istsĠ": 2837,
      "olut": 2838,
      "andĠtoĠ": 2839,
      "ird": 2840,
      "student": 2841,
      "doub": 2842,
      "He": 2843,
      "WĠ": 2844,
      "womenĠ": 2845,
      "dest": 2846,
      "ufact": 2847,
      "alkingĠ": 2848,
      "agg": 2849,
      "projectĠ": 2850,
      "pick": 2851,
      "wideĠ": 2852,
      "ageĠofĠ": 2853,
      "information": 2854,
      "communityĠ": 2855,
      "âĢ¢Ġ": 2856,
      "3-": 2857,
      "jud": 2858,
      "flo": 2859,
      "Wat": 2860,
      "ations,Ġ": 2861,
      "youĠwillĠ": 2862,
      "sil": 2863,
      "ground": 2864,
      "ubĠ": 2865,
      "afterĠtheĠ": 2866,
      "most": 2867,
      "olĠ": 2868,
      "edĠto": 2869,
      "proveĠ": 2870,
      "medicalĠ": 2871,
      "consum": 2872,
      "receiveĠ": 2873,
      "largeĠ": 2874,
      "Dev": 2875,
      "y-": 2876,
      "Ġterm": 2877,
      "lit": 2878,
      "ength": 2879,
      "specificĠ": 2880,
      "JuneĠ": 2881,
      "ahĠ": 2882,
      "siz": 2883,
      "leav": 2884,
      "perform": 2885,
      "XĠ": 2886,
      "sĠatĠ": 2887,
      "recentĠ": 2888,
      "WorldĠ": 2889,
      "NorthĠ": 2890,
      "yĊ": 2891,
      "offersĠ": 2892,
      "cook": 2893,
      "associ": 2894,
      "us,Ġ": 2895,
      "prepar": 2896,
      "membersĠ": 2897,
      "deg": 2898,
      "shareĠ": 2899,
      "spr": 2900,
      "flow": 2901,
      "ure,Ġ": 2902,
      "scor": 2903,
      "Associ": 2904,
      "5-": 2905,
      "den": 2906,
      "ness": 2907,
      "star": 2908,
      "edĠtoĠbeĠ": 2909,
      "viol": 2910,
      ".ĠWhenĠ": 2911,
      "partĠofĠtheĠ": 2912,
      "edd": 2913,
      "ledĠ": 2914,
      "esĠofĠtheĠ": 2915,
      "echnologyĠ": 2916,
      "weĠhaveĠ": 2917,
      "ittenĠ": 2918,
      ")Ċ-Ġ": 2919,
      "Se": 2920,
      "thoughĠ": 2921,
      "age,Ġ": 2922,
      "blog": 2923,
      "boardĠ": 2924,
      "USĠ": 2925,
      "log": 2926,
      "emailĠ": 2927,
      "halfĠ": 2928,
      "LE": 2929,
      "draw": 2930,
      "ket": 2931,
      "amaz": 2932,
      "whetherĠ": 2933,
      "commonĠ": 2934,
      "musicĠ": 2935,
      "practic": 2936,
      "professionalĠ": 2937,
      "AP": 2938,
      "Mat": 2939,
      "rowĠ": 2940,
      "second": 2941,
      "3.": 2942,
      "Austr": 2943,
      "dog": 2944,
      "ertĠ": 2945,
      "asp": 2946,
      "echĠ": 2947,
      ".ĠSoĠ": 2948,
      "Hous": 2949,
      "heav": 2950,
      "doesnâĢĻtĠ": 2951,
      "Goog": 2952,
      "mob": 2953,
      "pageĠ": 2954,
      "ont": 2955,
      ",ĠP": 2956,
      "ionĠtoĠ": 2957,
      "29": 2958,
      "sat": 2959,
      "processĠ": 2960,
      "protect": 2961,
      "ingĠisĠ": 2962,
      "langu": 2963,
      "insur": 2964,
      ",ĠheĠ": 2965,
      ".ĠThatĠ": 2966,
      "reach": 2967,
      "contribut": 2968,
      "match": 2969,
      "anythingĠ": 2970,
      "ushĠ": 2971,
      "who": 2972,
      "IĠthinkĠ": 2973,
      ".ĊThisĠ": 2974,
      "email": 2975,
      "withinĠtheĠ": 2976,
      "s.ĊTheĠ": 2977,
      "quart": 2978,
      "ItĠisĠ": 2979,
      "But": 2980,
      "eĠisĠ": 2981,
      "ordin": 2982,
      "inste": 2983,
      "carĠ": 2984,
      "research": 2985,
      "All": 2986,
      "speak": 2987,
      "canc": 2988,
      "http://": 2989,
      "simil": 2990,
      "signific": 2991,
      "describ": 2992,
      "yetĠ": 2993,
      "ederalĠ": 2994,
      "someĠofĠtheĠ": 2995,
      "Heal": 2996,
      "Ob": 2997,
      "enĠtoĠ": 2998,
      "ster": 2999,
      "y,ĠandĠ": 3000,
      "assist": 3001,
      "promot": 3002,
      ",ĠsoĠ": 3003,
      "likeĠtheĠ": 3004,
      "Octob": 3005,
      "sequ": 3006,
      "prim": 3007,
      "currentlyĠ": 3008,
      "fel": 3009,
      "IâĢĻveĠ": 3010,
      "managementĠ": 3011,
      "girl": 3012,
      "deĠ": 3013,
      "aĠnewĠ": 3014,
      ".ĊN": 3015,
      "iesĠofĠ": 3016,
      "attent": 3017,
      "Soc": 3018,
      "dro": 3019,
      "areĠt": 3020,
      "upĠtheĠ": 3021,
      "brow": 3022,
      "originalĠ": 3023,
      "furtherĠ": 3024,
      "lic": 3025,
      ".ĊT": 3026,
      "introduc": 3027,
      "orderĠtoĠ": 3028,
      "everyoneĠ": 3029,
      "everythingĠ": 3030,
      "didĠnotĠ": 3031,
      "you'reĠ": 3032,
      "ifĠtheĠ": 3033,
      "Publ": 3034,
      "walk": 3035,
      "eĠinĠ": 3036,
      "contentĠ": 3037,
      "Cour": 3038,
      "100Ġ": 3039,
      "bott": 3040,
      "ren": 3041,
      "guid": 3042,
      "fewĠ": 3043,
      "medic": 3044,
      ".\"Ġ": 3045,
      "anch": 3046,
      "forn": 3047,
      "....": 3048,
      "sym": 3049,
      "naturalĠ": 3050,
      ",Ġ200": 3051,
      "phoneĠ": 3052,
      "colleg": 3053,
      "additionalĠ": 3054,
      "ienc": 3055,
      "couldĠbeĠ": 3056,
      "sixĠ": 3057,
      "food": 3058,
      "usp": 3059,
      "aĠbitĠ": 3060,
      ".ĠItĠisĠ": 3061,
      "25Ġ": 3062,
      "Sm": 3063,
      "bat": 3064,
      "againĠ": 3065,
      "likeĠtoĠ": 3066,
      "select": 3067,
      "ember": 3068,
      "Tim": 3069,
      "unchĠ": 3070,
      "ierĠ": 3071,
      "orĠtoĠ": 3072,
      "particular": 3073,
      "Manag": 3074,
      "Faceb": 3075,
      "inĠt": 3076,
      "esĠwithĠ": 3077,
      "leaveĠ": 3078,
      "meansĠ": 3079,
      "aliforn": 3080,
      "NĠ": 3081,
      "dre": 3082,
      "ĠTheĠ": 3083,
      "ingĠonĠ": 3084,
      "resourc": 3085,
      "AprilĠ": 3086,
      "derĠ": 3087,
      "cell": 3088,
      "1/": 3089,
      "4-": 3090,
      "in-": 3091,
      ".ĊInĠ": 3092,
      "orderĠ": 3093,
      "givenĠ": 3094,
      "safet": 3095,
      "vehic": 3096,
      "thatĠ": 3097,
      "fric": 3098,
      "blackĠ": 3099,
      "finalĠ": 3100,
      "variet": 3101,
      "edĊ": 3102,
      "phon": 3103,
      "completeĠ": 3104,
      "sent": 3105,
      "ifyĠ": 3106,
      ".ĠAsĠ": 3107,
      "edĠhisĠ": 3108,
      "elsĠ": 3109,
      "frontĠ": 3110,
      "foot": 3111,
      "searchĠ": 3112,
      "ementsĠ": 3113,
      "lingĠ": 3114,
      "God": 3115,
      "ia,Ġ": 3116,
      "U.S.Ġ": 3117,
      "Depart": 3118,
      "Cra": 3119,
      "Pat": 3120,
      "much": 3121,
      "oil": 3122,
      "edĠupĠ": 3123,
      "asterĠ": 3124,
      "hardĠ": 3125,
      "Inc": 3126,
      "learnĠ": 3127,
      "itingĠ": 3128,
      "allowĠ": 3129,
      "regul": 3130,
      "NewĠYorkĠ": 3131,
      "Del": 3132,
      "Well": 3133,
      "aĠth": 3134,
      "wel": 3135,
      "should": 3136,
      "sĠtoĠbeĠ": 3137,
      "courseĠ": 3138,
      "buyĠ": 3139,
      "strongĠ": 3140,
      "esĠonĠ": 3141,
      "ment,Ġ": 3142,
      "websiteĠ": 3143,
      "amb": 3144,
      "ongĠtheĠ": 3145,
      "scen": 3146,
      "financialĠ": 3147,
      "War": 3148,
      "ge": 3149,
      ".ĊC": 3150,
      "andĠth": 3151,
      "wordĠ": 3152,
      "bloodĠ": 3153,
      "suppl": 3154,
      "developmentĠ": 3155,
      "AD": 3156,
      "Law": 3157,
      "mach": 3158,
      "ĠtookĠ": 3159,
      "allĠofĠ": 3160,
      "mitt": 3161,
      "stayĠ": 3162,
      "ailyĠ": 3163,
      "Char": 3164,
      "approach": 3165,
      "ez": 3166,
      "roughĠ": 3167,
      "away": 3168,
      "gradu": 3169,
      "2,Ġ": 3170,
      "yĠisĠ": 3171,
      "comfort": 3172,
      "computerĠ": 3173,
      "sinc": 3174,
      "object": 3175,
      "possibleĠ": 3176,
      "orĠtheĠ": 3177,
      "âĢĻt": 3178,
      "in,Ġ": 3179,
      "propos": 3180,
      "alt": 3181,
      "planĠ": 3182,
      "itĠandĠ": 3183,
      "hadĠbeenĠ": 3184,
      "areasĠ": 3185,
      "different": 3186,
      "privateĠ": 3187,
      "fa": 3188,
      "abor": 3189,
      "!!": 3190,
      "6-": 3191,
      "sound": 3192,
      "imateĠ": 3193,
      "eter": 3194,
      "integr": 3195,
      "defin": 3196,
      "nationalĠ": 3197,
      "prec": 3198,
      "ford": 3199,
      "havi": 3200,
      "eff": 3201,
      "riskĠ": 3202,
      "sĠlikeĠ": 3203,
      ".ĠOn": 3204,
      "plant": 3205,
      "plement": 3206,
      "aĊ": 3207,
      "ix": 3208,
      "andĠthatĠ": 3209,
      "doct": 3210,
      "CH": 3211,
      "whiteĠ": 3212,
      "ance,Ġ": 3213,
      ".ĠItâĢĻsĠ": 3214,
      "Commun": 3215,
      "vil": 3216,
      "aĠS": 3217,
      "agesĠ": 3218,
      "arkĠ": 3219,
      "ionĠofĠtheĠ": 3220,
      "separ": 3221,
      "contract": 3222,
      "film": 3223,
      "performanceĠ": 3224,
      "conduct": 3225,
      "UĠ": 3226,
      "ther": 3227,
      "Inter": 3228,
      "enter": 3229,
      "ago": 3230,
      "exper": 3231,
      "attack": 3232,
      "ugeĠ": 3233,
      "against": 3234,
      "nic": 3235,
      "ingĠinĠtheĠ": 3236,
      "ĠthereĠareĠ": 3237,
      "advant": 3238,
      "s,ĠbutĠ": 3239,
      "ainlyĠ": 3240,
      "198": 3241,
      "underĠtheĠ": 3242,
      "raft": 3243,
      "enoughĠ": 3244,
      "YouĠcanĠ": 3245,
      "topĠ": 3246,
      ".ĠK": 3247,
      "chur": 3248,
      "bab": 3249,
      "rup": 3250,
      ".ĠTheseĠ": 3251,
      "West": 3252,
      "four": 3253,
      "rout": 3254,
      "rough": 3255,
      "ym": 3256,
      "stra": 3257,
      "ĠthereĠisĠ": 3258,
      "consist": 3259,
      "didn'tĠ": 3260,
      "RO": 3261,
      "fall": 3262,
      "orĠandĠ": 3263,
      "othersĠ": 3264,
      "ipĠ": 3265,
      "ferenceĠ": 3266,
      "ustri": 3267,
      "generalĠ": 3268,
      "beginn": 3269,
      "Isl": 3270,
      "ic,Ġ": 3271,
      "dealĠ": 3272,
      "s-": 3273,
      "ref": 3274,
      "activeĠ": 3275,
      "positionĠ": 3276,
      "mix": 3277,
      "vic": 3278,
      "uringĠ": 3279,
      "recommend": 3280,
      "a-": 3281,
      "ĠtoĠtakeĠ": 3282,
      "avo": 3283,
      "joyĠ": 3284,
      "eĠforĠ": 3285,
      "comment": 3286,
      "manufact": 3287,
      "minim": 3288,
      "collect": 3289,
      "Mo": 3290,
      "Rel": 3291,
      "gaveĠ": 3292,
      "emerg": 3293,
      "formerĠ": 3294,
      "mid": 3295,
      "respect": 3296,
      "PresidentĠ": 3297,
      "'t": 3298,
      "Ġtest": 3299,
      "inĠhisĠ": 3300,
      "sched": 3301,
      "capt": 3302,
      ".org": 3303,
      "Californ": 3304,
      "âĢ¢âĢ¢": 3305,
      "popul": 3306,
      "ĠtogetherĠ": 3307,
      "Afric": 3308,
      "e?Ġ": 3309,
      "atĠaĠ": 3310,
      "plic": 3311,
      "productsĠ": 3312,
      "cannotĠ": 3313,
      "JulyĠ": 3314,
      "Pe": 3315,
      "respond": 3316,
      "internationalĠ": 3317,
      "Cr": 3318,
      "injur": 3319,
      "onĠthisĠ": 3320,
      "inĠmyĠ": 3321,
      "Ġthemselv": 3322,
      "beautifulĠ": 3323,
      ".ĠSt": 3324,
      "ersĠofĠ": 3325,
      "sometim": 3326,
      "70": 3327,
      "SouthĠ": 3328,
      "exĠ": 3329,
      "ologicalĠ": 3330,
      "Op": 3331,
      "ox": 3332,
      ".ĊF": 3333,
      "been": 3334,
      "evalu": 3335,
      "whenĠyouĠ": 3336,
      "startedĠ": 3337,
      "It'sĠ": 3338,
      "At": 3339,
      "Ġtow": 3340,
      "entireĠ": 3341,
      "administ": 3342,
      "effort": 3343,
      "ings,Ġ": 3344,
      "mediaĠ": 3345,
      "brok": 3346,
      "limit": 3347,
      "ifeĠ": 3348,
      "outĠofĠtheĠ": 3349,
      "I'veĠ": 3350,
      "Flor": 3351,
      "PM": 3352,
      "near": 3353,
      "devic": 3354,
      "individualĠ": 3355,
      "lot": 3356,
      "backĠtoĠ": 3357,
      "cand": 3358,
      "agn": 3359,
      "restĠ": 3360,
      "ipleĠ": 3361,
      "s)Ġ": 3362,
      "facil": 3363,
      "4.": 3364,
      "Part": 3365,
      ",ĠasĠ": 3366,
      "ThereĠareĠ": 3367,
      "lip": 3368,
      "recentlyĠ": 3369,
      "Stre": 3370,
      "canâĢĻtĠ": 3371,
      "Jam": 3372,
      "chanc": 3373,
      "appoint": 3374,
      "investig": 3375,
      "II": 3376,
      "latestĠ": 3377,
      "Prof": 3378,
      "Mr": 3379,
      "pet": 3380,
      "wood": 3381,
      "sĠonĠtheĠ": 3382,
      ",ĠâĢľ": 3383,
      "bud": 3384,
      "writtenĠ": 3385,
      "hadĠtoĠ": 3386,
      "=Ġ": 3387,
      "OfĠ": 3388,
      "she": 3389,
      "webĠ": 3390,
      "mustĠbeĠ": 3391,
      "UniversityĠofĠ": 3392,
      "aâĢĻsĠ": 3393,
      "iewĠ": 3394,
      "recordĠ": 3395,
      "affect": 3396,
      "runningĠ": 3397,
      "Ag": 3398,
      "drop": 3399,
      "ier": 3400,
      "forward": 3401,
      "weĠcanĠ": 3402,
      "getĠtheĠ": 3403,
      "control": 3404,
      "committ": 3405,
      "storyĠ": 3406,
      "featuresĠ": 3407,
      "winĠ": 3408,
      "betweenĠtheĠ": 3409,
      "historyĠ": 3410,
      "holdĠ": 3411,
      "box": 3412,
      "sn": 3413,
      "ed:Ġ": 3414,
      "uniqueĠ": 3415,
      "Direct": 3416,
      "Dem": 3417,
      "shop": 3418,
      "ivelyĠ": 3419,
      "loadĠ": 3420,
      "cros": 3421,
      "nation": 3422,
      ",ĠandĠtheĠ": 3423,
      "inglyĠ": 3424,
      "s.Ċ-Ġ": 3425,
      "Ġteach": 3426,
      "Â£": 3427,
      "encour": 3428,
      "commerc": 3429,
      "prefer": 3430,
      "accept": 3431,
      "Ang": 3432,
      "hadĠaĠ": 3433,
      "ory": 3434,
      "agu": 3435,
      "companiesĠ": 3436,
      "Tues": 3437,
      "beĠt": 3438,
      "refl": 3439,
      "small": 3440,
      "Not": 3441,
      "p.m": 3442,
      "sĠisĠ": 3443,
      "Ġthes": 3444,
      ",ĠwhoĠ": 3445,
      "forĠthisĠ": 3446,
      "pleĠofĠ": 3447,
      "ersĠinĠ": 3448,
      "believ": 3449,
      "dĠtoĠ": 3450,
      "reportĠ": 3451,
      "anyoneĠ": 3452,
      "advanc": 3453,
      "pain": 3454,
      "Ġtreat": 3455,
      "includesĠ": 3456,
      "FromĠ": 3457,
      "studyĠ": 3458,
      "profession": 3459,
      "ĠtryingĠtoĠ": 3460,
      "Sen": 3461,
      "ershipĠ": 3462,
      "extrem": 3463,
      "countryĠ": 3464,
      "effectiveĠ": 3465,
      "2)Ġ": 3466,
      "sist": 3467,
      "IĠcanĠ": 3468,
      "seeĠtheĠ": 3469,
      "Val": 3470,
      "sun": 3471,
      "susp": 3472,
      "one": 3473,
      "earn": 3474,
      "behavi": 3475,
      "priceĠ": 3476,
      "fromĠaĠ": 3477,
      "ideaĠ": 3478,
      "Colleg": 3479,
      "focusĠ": 3480,
      "clin": 3481,
      "spaceĠ": 3482,
      "finish": 3483,
      "Ger": 3484,
      "efulĠ": 3485,
      "providesĠ": 3486,
      "can'tĠ": 3487,
      "equip": 3488,
      "k,Ġ": 3489,
      "fair": 3490,
      "difficult": 3491,
      "ai": 3492,
      "inf": 3493,
      "amongĠ": 3494,
      "document": 3495,
      "cup": 3496,
      "went": 3497,
      "erâĢĻsĠ": 3498,
      "replac": 3499,
      "edĠonĠtheĠ": 3500,
      "execut": 3501,
      "doorĠ": 3502,
      "matterĠ": 3503,
      "tionĠofĠ": 3504,
      "effici": 3505,
      "CE": 3506,
      "Net": 3507,
      "mo": 3508,
      "withĠanĠ": 3509,
      "occur": 3510,
      "abilityĠtoĠ": 3511,
      "serveĠ": 3512,
      "mic": 3513,
      "marri": 3514,
      "Art": 3515,
      ")||": 3516,
      "DoĠ": 3517,
      "ĠB": 3518,
      "aĠ(": 3519,
      "itionalĠ": 3520,
      "fortun": 3521,
      "NO": 3522,
      ".ĊAĠ": 3523,
      "kind": 3524,
      "oftĠ": 3525,
      "onsĠ": 3526,
      "oĠandĠ": 3527,
      "stopĠ": 3528,
      "ingĠofĠtheĠ": 3529,
      "foreĠ": 3530,
      "subject": 3531,
      "employe": 3532,
      "accordingĠtoĠ": 3533,
      "lateĠ": 3534,
      "ing,ĠandĠ": 3535,
      "urr": 3536,
      "bringĠ": 3537,
      "remov": 3538,
      "missionĠ": 3539,
      "camer": 3540,
      "campa": 3541,
      "bigg": 3542,
      "yet": 3543,
      "asĠanĠ": 3544,
      "water": 3545,
      "join": 3546,
      "Austral": 3547,
      "ĠL": 3548,
      "excell": 3549,
      "favoriteĠ": 3550,
      "house": 3551,
      "âĢĻdĠ": 3552,
      "onĠandĠ": 3553,
      "Ear": 3554,
      "iumĠ": 3555,
      "prog": 3556,
      "saveĠ": 3557,
      "officeĠ": 3558,
      "Eng": 3559,
      ",000": 3560,
      "Euro": 3561,
      "Her": 3562,
      "answ": 3563,
      "futureĠ": 3564,
      "one,Ġ": 3565,
      "child": 3566,
      "raz": 3567,
      "createdĠ": 3568,
      "institut": 3569,
      "countri": 3570,
      "stain": 3571,
      "stepĠ": 3572,
      "block": 3573,
      "Post": 3574,
      "eĊ-Ġ": 3575,
      "next": 3576,
      "asĠwell": 3577,
      "ThatĠ": 3578,
      "inĠ201": 3579,
      "eph": 3580,
      "strong": 3581,
      "basedĠonĠ": 3582,
      "Ð¾": 3583,
      "very": 3584,
      "deb": 3585,
      "easyĠ": 3586,
      "usinessĠ": 3587,
      "Craig": 3588,
      "TI": 3589,
      "s,": 3590,
      "andĠtheyĠ": 3591,
      "esĠorĠ": 3592,
      "ent,Ġ": 3593,
      "cast": 3594,
      "meetĠ": 3595,
      "visitĠ": 3596,
      "childĠ": 3597,
      "acrossĠtheĠ": 3598,
      "aj": 3599,
      "sourc": 3600,
      "atâĢĻsĠ": 3601,
      "recip": 3602,
      "whoĠareĠ": 3603,
      "eptemberĠ": 3604,
      "popularĠ": 3605,
      "sawĠ": 3606,
      "aĠsim": 3607,
      "viaĠ": 3608,
      "publish": 3609,
      "atedĠtoĠ": 3610,
      "useĠtheĠ": 3611,
      "eĠthatĠtheĠ": 3612,
      "partyĠ": 3613,
      "self-": 3614,
      "Republ": 3615,
      "JanuaryĠ": 3616,
      "ean": 3617,
      "ThisĠisĠ": 3618,
      "John": 3619,
      "articleĠ": 3620,
      "analys": 3621,
      "cul": 3622,
      "listĠ": 3623,
      "arriv": 3624,
      "ess.Ġ": 3625,
      "inĠandĠ": 3626,
      "ountĠofĠ": 3627,
      "1916": 3628,
      "respons": 3629,
      "celebr": 3630,
      "5.": 3631,
      "bed": 3632,
      "cit": 3633,
      "emot": 3634,
      "updat": 3635,
      "problemĠ": 3636,
      "endentĠ": 3637,
      "order": 3638,
      "color": 3639,
      "method": 3640,
      ",ĠinĠ": 3641,
      "fra": 3642,
      "display": 3643,
      "fastĠ": 3644,
      "erĠthanĠ": 3645,
      "univers": 3646,
      "offĠtheĠ": 3647,
      "Act": 3648,
      "CA": 3649,
      "Gener": 3650,
      "ĊM": 3651,
      "onesĠ": 3652,
      "agĠ": 3653,
      "icĠandĠ": 3654,
      "explain": 3655,
      "CityĠ": 3656,
      "fĠtheĠ": 3657,
      "eĠofĠtheĠ": 3658,
      "urg": 3659,
      "cutĠ": 3660,
      "e!Ġ": 3661,
      "sect": 3662,
      "roleĠ": 3663,
      "shortĠ": 3664,
      "feed": 3665,
      "dueĠtoĠ": 3666,
      "SchoolĠ": 3667,
      "GodĠ": 3668,
      "yn": 3669,
      ",ĠL": 3670,
      "ingĠto": 3671,
      "express": 3672,
      "ationĠisĠ": 3673,
      "insteadĠ": 3674,
      "zz": 3675,
      ",ĠD": 3676,
      "âĢĻs": 3677,
      "antlyĠ": 3678,
      "Ġtran": 3679,
      "womanĠ": 3680,
      "OctoberĠ": 3681,
      "path": 3682,
      "ĊB": 3683,
      "money": 3684,
      "appropri": 3685,
      "distribut": 3686,
      "ĊL": 3687,
      "sĠhaveĠ": 3688,
      "acqu": 3689,
      "ednes": 3690,
      "enĠandĠ": 3691,
      "argeĠ": 3692,
      "depart": 3693,
      "politicalĠ": 3694,
      "re-": 3695,
      "Ġtime,Ġ": 3696,
      "eatĠ": 3697,
      "hab": 3698,
      "shap": 3699,
      "exact": 3700,
      "stric": 3701,
      "ĠthatâĢĻsĠ": 3702,
      "Wash": 3703,
      "cityĠ": 3704,
      "fol": 3705,
      "inaĠ": 3706,
      "Chec": 3707,
      ".ĠYouĠcanĠ": 3708,
      "clean": 3709,
      "buildingĠ": 3710,
      "AugustĠ": 3711,
      "SE": 3712,
      "Wind": 3713,
      "ientsĠ": 3714,
      "amm": 3715,
      "indep": 3716,
      "ought": 3717,
      "doesn'tĠ": 3718,
      "Produc": 3719,
      "country": 3720,
      "1916:Ġ": 3721,
      "14Ġ": 3722,
      "Do": 3723,
      "gar": 3724,
      "verĠ": 3725,
      "useĠofĠ": 3726,
      "chem": 3727,
      "eĠthereĠ": 3728,
      "notic": 3729,
      "shipp": 3730,
      "Craig1916:Ġ": 3731,
      "ST": 3732,
      "convers": 3733,
      "monthĠ": 3734,
      "ĠtakingĠ": 3735,
      "Cre": 3736,
      "stri": 3737,
      "es.ĠTheĠ": 3738,
      "inĠB": 3739,
      "mediat": 3740,
      "InternationalĠ": 3741,
      "With": 3742,
      "intoĠaĠ": 3743,
      "Febr": 3744,
      "pal": 3745,
      "sâĢĻĠ": 3746,
      "edĠwithĠtheĠ": 3747,
      "newsĠ": 3748,
      "aĠsmallĠ": 3749,
      "40Ġ": 3750,
      "uitĠ": 3751,
      "suit": 3752,
      "sych": 3753,
      "laterĠ": 3754,
      "vertis": 3755,
      "24Ġ": 3756,
      "Hol": 3757,
      "ĠtoldĠ": 3758,
      "IĠwouldĠ": 3759,
      "umpĠ": 3760,
      "askedĠ": 3761,
      "Pa": 3762,
      "udi": 3763,
      "woodĠ": 3764,
      "locatedĠ": 3765,
      "ereâĢĻsĠ": 3766,
      "nothingĠ": 3767,
      "Tex": 3768,
      "e)Ġ": 3769,
      "ecaus": 3770,
      "request": 3771,
      "cleĠ": 3772,
      "ingleĠ": 3773,
      "forĠtheirĠ": 3774,
      "scrip": 3775,
      "driveĠ": 3776,
      "PleaseĠ": 3777,
      "oilĠ": 3778,
      "itud": 3779,
      "edic": 3780,
      "uponĠ": 3781,
      "year-": 3782,
      "e.Ċ-Ġ": 3783,
      "innov": 3784,
      "highlyĠ": 3785,
      ".ĠIfĠyouĠ": 3786,
      "18Ġ": 3787,
      "isc": 3788,
      "eĠtimeĠ": 3789,
      "90": 3790,
      "ksĠ": 3791,
      "stay": 3792,
      "erĠ(": 3793,
      "isĠalsoĠ": 3794,
      "elyĠtoĠ": 3795,
      "urb": 3796,
      "iftĠ": 3797,
      "globalĠ": 3798,
      "livingĠ": 3799,
      "schedul": 3800,
      "7-": 3801,
      "agueĠ": 3802,
      "shallĠ": 3803,
      ":ĠTheĠ": 3804,
      "surpris": 3805,
      "area": 3806,
      "getsĠ": 3807,
      "Grou": 3808,
      "coun": 3809,
      "ram": 3810,
      "Thurs": 3811,
      "idenceĠ": 3812,
      "earli": 3813,
      "princ": 3814,
      "syn": 3815,
      "playersĠ": 3816,
      "discover": 3817,
      "Offic": 3818,
      "onlin": 3819,
      "parent": 3820,
      "choos": 3821,
      "paint": 3822,
      "1,Ġ": 3823,
      "aĠgoodĠ": 3824,
      "eĠte": 3825,
      "completelyĠ": 3826,
      "Ir": 3827,
      "eĠthemĠ": 3828,
      "relatedĠ": 3829,
      "rather": 3830,
      "friendĠ": 3831,
      "buildĠ": 3832,
      "16Ġ": 3833,
      "shot": 3834,
      "spok": 3835,
      "heĠsaid": 3836,
      "high-": 3837,
      ".ĠToĠ": 3838,
      "inĠourĠ": 3839,
      "userĠ": 3840,
      "pressĠ": 3841,
      "whenĠIĠ": 3842,
      "wantedĠtoĠ": 3843,
      "definit": 3844,
      "Progr": 3845,
      "servicesĠ": 3846,
      "varietyĠofĠ": 3847,
      "3,Ġ": 3848,
      "card": 3849,
      "influ": 3850,
      "ofĠyourĠ": 3851,
      "anĠandĠ": 3852,
      "agoĠ": 3853,
      "eption": 3854,
      "specific": 3855,
      "yĠthatĠ": 3856,
      "ĠtimeĠtoĠ": 3857,
      ".ĠBut": 3858,
      "issueĠ": 3859,
      "particularĠ": 3860,
      "certainĠ": 3861,
      "WestĠ": 3862,
      "Dat": 3863,
      "Sal": 3864,
      "altern": 3865,
      "emper": 3866,
      "angĠ": 3867,
      "ensur": 3868,
      "mindĠ": 3869,
      "helpĠyouĠ": 3870,
      "softwareĠ": 3871,
      "band": 3872,
      "period": 3873,
      "explor": 3874,
      "potentialĠ": 3875,
      "GoogleĠ": 3876,
      "ootĠ": 3877,
      "WeĠareĠ": 3878,
      "societ": 3879,
      "restaur": 3880,
      "IL": 3881,
      "batt": 3882,
      "meĠtoĠ": 3883,
      "omin": 3884,
      "becameĠ": 3885,
      "higherĠ": 3886,
      "NotĠ": 3887,
      "attempt": 3888,
      "Franc": 3889,
      "iddleĠ": 3890,
      "ate,Ġ": 3891,
      "styleĠ": 3892,
      ".ĊWh": 3893,
      "heart": 3894,
      "twoĠ": 3895,
      "itĠtheĠ": 3896,
      "aĠgreatĠ": 3897,
      "ung": 3898,
      "seek": 3899,
      "neigh": 3900,
      "AfterĠ": 3901,
      "ffĠ": 3902,
      "yâĢĻsĠ": 3903,
      "onĠtheirĠ": 3904,
      "youâĢĻllĠ": 3905,
      "197": 3906,
      "soonĠ": 3907,
      "onyĠ": 3908,
      "into": 3909,
      "Jap": 3910,
      "reshĠ": 3911,
      "withĠyourĠ": 3912,
      "ĠtodayĠ": 3913,
      "relig": 3914,
      "valueĠ": 3915,
      "categ": 3916,
      "ely,Ġ": 3917,
      "ĠthatĠyouĠ": 3918,
      "THEĠ": 3919,
      "CountyĠ": 3920,
      "Hel": 3921,
      "dic": 3922,
      "edĠthisĠ": 3923,
      "Ann": 3924,
      "proced": 3925,
      "excit": 3926,
      "Europe": 3927,
      "May": 3928,
      "fight": 3929,
      "esĠfromĠ": 3930,
      "owsĠ": 3931,
      "-to-": 3932,
      "@example": 3933,
      "Brow": 3934,
      "bank": 3935,
      "mention": 3936,
      "Chr": 3937,
      "ĠthoughtĠ": 3938,
      "analy": 3939,
      "NovemberĠ": 3940,
      "Bro": 3941,
      "mount": 3942,
      "insĠ": 3943,
      "ofĠthemĠ": 3944,
      "edĠoutĠ": 3945,
      "partner": 3946,
      "children": 3947,
      "ĠthanĠtheĠ": 3948,
      "reas": 3949,
      "inĠS": 3950,
      "upĠandĠ": 3951,
      "perhap": 3952,
      "ester": 3953,
      "rail": 3954,
      "anceĠofĠ": 3955,
      "easilyĠ": 3956,
      "Willi": 3957,
      "enh": 3958,
      "inĠanĠ": 3959,
      "uryĠ": 3960,
      "closeĠ": 3961,
      "worthĠ": 3962,
      "Bel": 3963,
      "Po": 3964,
      "Pow": 3965,
      "hosp": 3966,
      "sem": 3967,
      "erĠofĠtheĠ": 3968,
      "storeĠ": 3969,
      "personal": 3970,
      "increaseĠ": 3971,
      "rangeĠ": 3972,
      "Georg": 3973,
      "song": 3974,
      "ions,Ġ": 3975,
      "obt": 3976,
      "asticĠ": 3977,
      "goal": 3978,
      "aĠcou": 3979,
      "whereĠtheĠ": 3980,
      "99": 3981,
      "bandĠ": 3982,
      "hitĠ": 3983,
      "ĊT": 3984,
      "aneĠ": 3985,
      "also": 3986,
      "acyĠ": 3987,
      "improveĠ": 3988,
      "percent": 3989,
      "estiv": 3990,
      "ence,Ġ": 3991,
      ".ĠAllĠ": 3992,
      "8-": 3993,
      ",ĠwithĠ": 3994,
      "classĠ": 3995,
      "digitalĠ": 3996,
      "energyĠ": 3997,
      "NE": 3998,
      "UR": 3999,
      "coverĠ": 4000,
      "wear": 4001,
      "ichĠ": 4002,
      "ĠtoĠyourĠ": 4003,
      "notĠtoĠ": 4004,
      "until": 4005,
      "fix": 4006,
      "behindĠ": 4007,
      "asĠtheyĠ": 4008,
      "empor": 4009,
      "displayĠ": 4010,
      "promis": 4011,
      "establish": 4012,
      "FirstĠ": 4013,
      "againstĠtheĠ": 4014,
      "ĠthingĠ": 4015,
      "iff": 4016,
      "likelyĠ": 4017,
      "AnĠ": 4018,
      "Satur": 4019,
      "wall": 4020,
      "stag": 4021,
      "essĠofĠ": 4022,
      "engag": 4023,
      "corpor": 4024,
      "demon": 4025,
      "Wednes": 4026,
      "hur": 4027,
      "istĠofĠ": 4028,
      "door": 4029,
      "35": 4030,
      "Cal": 4031,
      "Ser": 4032,
      "pm": 4033,
      "er'sĠ": 4034,
      "es.Ġ": 4035,
      "cloth": 4036,
      "ationĠforĠ": 4037,
      "estim": 4038,
      "echan": 4039,
      "choic": 4040,
      "writingĠ": 4041,
      "ED": 4042,
      "isticĠ": 4043,
      "notĠtheĠ": 4044,
      "UniversityĠ": 4045,
      "i,Ġ": 4046,
      "ysĠ": 4047,
      "7.": 4048,
      "s/": 4049,
      "to": 4050,
      "reasonĠ": 4051,
      "Ġthat'sĠ": 4052,
      "ĠtakenĠ": 4053,
      "niceĠ": 4054,
      "edĠin": 4055,
      "else": 4056,
      "givingĠ": 4057,
      "IG": 4058,
      "nov": 4059,
      "ore": 4060,
      "enderĠ": 4061,
      "paidĠ": 4062,
      "ingĠthemĠ": 4063,
      "andĠtheirĠ": 4064,
      "beforeĠtheĠ": 4065,
      "leadingĠ": 4066,
      "Brit": 4067,
      "Cam": 4068,
      "sure": 4069,
      "creat": 4070,
      "policeĠ": 4071,
      "questionsĠ": 4072,
      "Sund": 4073,
      "UN": 4074,
      "as,Ġ": 4075,
      "isĠt": 4076,
      "leadĠ": 4077,
      "construc": 4078,
      "major": 4079,
      "staffĠ": 4080,
      "satis": 4081,
      "bon": 4082,
      "badĠ": 4083,
      "at'sĠ": 4084,
      "absolut": 4085,
      "const": 4086,
      "19Ġ": 4087,
      "easyĠtoĠ": 4088,
      "creditĠ": 4089,
      "wonder": 4090,
      "FreeĠ": 4091,
      "Vis": 4092,
      "e.ĠItĠ": 4093,
      "ĠtryĠtoĠ": 4094,
      "lock": 4095,
      "Christm": 4096,
      "fish": 4097,
      "ofĠhisĠ": 4098,
      "perfect": 4099,
      "enchĠ": 4100,
      "engine": 4101,
      "Washing": 4102,
      "ionsĠofĠ": 4103,
      "usingĠtheĠ": 4104,
      "multipleĠ": 4105,
      "industryĠ": 4106,
      "search": 4107,
      "wish": 4108,
      "sĠasĠ": 4109,
      "enjoyĠ": 4110,
      "oud": 4111,
      "amountĠofĠ": 4112,
      "ĠtheĊ": 4113,
      "goalĠ": 4114,
      ".ĠAnd": 4115,
      "physicalĠ": 4116,
      "36": 4117,
      "fitĠ": 4118,
      "insp": 4119,
      ",ĠJ": 4120,
      "arant": 4121,
      "thing": 4122,
      "asc": 4123,
      "exerc": 4124,
      "sibl": 4125,
      "application": 4126,
      "LO": 4127,
      "Ġthre": 4128,
      "oudĠ": 4129,
      "implement": 4130,
      "umeĠ": 4131,
      "printĠ": 4132,
      "Educ": 4133,
      "Pal": 4134,
      "frequ": 4135,
      "sĠwillĠ": 4136,
      "weightĠ": 4137,
      "insuranceĠ": 4138,
      "soundĠ": 4139,
      "carri": 4140,
      "ectionĠofĠ": 4141,
      "builtĠ": 4142,
      "rank": 4143,
      "immediat": 4144,
      "IĠhadĠ": 4145,
      "standardĠ": 4146,
      "heartĠ": 4147,
      "Florid": 4148,
      "ffer": 4149,
      "emp": 4150,
      "abĠ": 4151,
      "ĠthisĠisĠ": 4152,
      "filmĠ": 4153,
      "500Ġ": 4154,
      "rangeĠofĠ": 4155,
      "longerĠ": 4156,
      "No.Ġ": 4157,
      "Cap": 4158,
      "dib": 4159,
      "allowsĠ": 4160,
      "relationship": 4161,
      "averageĠ": 4162,
      "Pet": 4163,
      "Vir": 4164,
      "clickĠ": 4165,
      "odyĠ": 4166,
      "ĠtimesĠ": 4167,
      "studentĠ": 4168,
      ".comĠ": 4169,
      "monthsĠ": 4170,
      ".ĠIt'sĠ": 4171,
      "ingĠatĠ": 4172,
      "roadĠ": 4173,
      "boxĠ": 4174,
      "aughtĠ": 4175,
      "nearlyĠ": 4176,
      "onĠtoĠ": 4177,
      "ureĠofĠ": 4178,
      "bey": 4179,
      "see": 4180,
      "belowĠ": 4181,
      "well-": 4182,
      "lostĠ": 4183,
      "mitĠ": 4184,
      "ofĠthoseĠ": 4185,
      "Thom": 4186,
      "acrossĠ": 4187,
      "dogĠ": 4188,
      "sendĠ": 4189,
      "wrot": 4190,
      ",ĠT": 4191,
      "unc": 4192,
      "haelĠ": 4193,
      "comeĠtoĠ": 4194,
      "ulatedĠ": 4195,
      "fram": 4196,
      "ocrat": 4197,
      "content": 4198,
      "brand": 4199,
      "playerĠ": 4200,
      "ReadĠ": 4201,
      "mission": 4202,
      "continueĠtoĠ": 4203,
      "performanc": 4204,
      "Mod": 4205,
      "sizeĠ": 4206,
      "uit": 4207,
      "elev": 4208,
      "alĠandĠ": 4209,
      "ugg": 4210,
      "modelĠ": 4211,
      "givesĠ": 4212,
      "Ðµ": 4213,
      "ere'sĠ": 4214,
      "feltĠ": 4215,
      "inesĠ": 4216,
      "super": 4217,
      ".ĠMyĠ": 4218,
      "ificationĠ": 4219,
      ".ĠThisĠisĠ": 4220,
      "pressureĠ": 4221,
      "EnglishĠ": 4222,
      "a'sĠ": 4223,
      "bul": 4224,
      "me,Ġ": 4225,
      "s;Ġ": 4226,
      "ĊH": 4227,
      "usĠtoĠ": 4228,
      "impress": 4229,
      "periodĠ": 4230,
      "numberĠ": 4231,
      "21Ġ": 4232,
      "federalĠ": 4233,
      "Ġtop": 4234,
      "ingĠfromĠ": 4235,
      "pull": 4236,
      "positiveĠ": 4237,
      "quicklyĠ": 4238,
      "Bre": 4239,
      "nearĠ": 4240,
      "resultĠ": 4241,
      "util": 4242,
      "regularĠ": 4243,
      "Phil": 4244,
      "networkĠ": 4245,
      "particularlyĠ": 4246,
      "ationĠtoĠ": 4247,
      "here": 4248,
      "annualĠ": 4249,
      ".ĠOurĠ": 4250,
      "IM": 4251,
      "erousĠ": 4252,
      "one-": 4253,
      "notĠonlyĠ": 4254,
      "raftĠ": 4255,
      "iedĠ": 4256,
      "mal": 4257,
      "ux": 4258,
      "anaĠ": 4259,
      "buy": 4260,
      "contr": 4261,
      "finallyĠ": 4262,
      "gain": 4263,
      "kitch": 4264,
      "vest": 4265,
      "blogĠ": 4266,
      "accountĠ": 4267,
      "UnitedĠStat": 4268,
      "s)": 4269,
      "lexĠ": 4270,
      "opt": 4271,
      "heardĠ": 4272,
      "arilyĠ": 4273,
      "compos": 4274,
      "accur": 4275,
      "BlackĠ": 4276,
      "Spec": 4277,
      "FacebookĠ": 4278,
      "Fil": 4279,
      "dailyĠ": 4280,
      ",ĠR": 4281,
      "ingĠanĠ": 4282,
      "available": 4283,
      "Jer": 4284,
      "dy": 4285,
      "fem": 4286,
      "sĠyouĠ": 4287,
      "ellowĠ": 4288,
      "certainlyĠ": 4289,
      "sometimesĠ": 4290,
      "IP": 4291,
      "ry,Ġ": 4292,
      "reviewĠ": 4293,
      "offe": 4294,
      "usesĠ": 4295,
      "advertis": 4296,
      "endsĠ": 4297,
      "milit": 4298,
      ".ĠHowever,Ġ": 4299,
      "13Ġ": 4300,
      "fire": 4301,
      "gin": 4302,
      "nut": 4303,
      "stock": 4304,
      "Inform": 4305,
      "AB": 4306,
      "DayĠ": 4307,
      "essĠandĠ": 4308,
      "thisĠ": 4309,
      ".ĠWhatĠ": 4310,
      "photograph": 4311,
      "rom": 4312,
      "ics,Ġ": 4313,
      "brandĠ": 4314,
      "attract": 4315,
      "lyĠtheĠ": 4316,
      "unte": 4317,
      "community": 4318,
      "bir": 4319,
      "fallĠ": 4320,
      "erĊ": 4321,
      "ĠtakesĠ": 4322,
      "returnĠ": 4323,
      "launch": 4324,
      "damag": 4325,
      "HisĠ": 4326,
      "all,Ġ": 4327,
      "mightĠbeĠ": 4328,
      "Found": 4329,
      "JustĠ": 4330,
      "Out": 4331,
      "dang": 4332,
      "s?Ġ": 4333,
      "es,ĠtheĠ": 4334,
      "invent": 4335,
      "photo": 4336,
      "definitelyĠ": 4337,
      "stop": 4338,
      "worksĠ": 4339,
      "writeĠ": 4340,
      "achiev": 4341,
      "mobileĠ": 4342,
      "à¤": 4343,
      "rob": 4344,
      "whoseĠ": 4345,
      "ationsĠandĠ": 4346,
      "ĠthatĠIĠ": 4347,
      "deathĠ": 4348,
      "endĠofĠtheĠ": 4349,
      "requireĠ": 4350,
      "patientsĠ": 4351,
      "customerĠ": 4352,
      "left": 4353,
      "causeĠ": 4354,
      "-basedĠ": 4355,
      "forceĠ": 4356,
      "advis": 4357,
      "resist": 4358,
      "spot": 4359,
      "flav": 4360,
      "chooseĠ": 4361,
      "directlyĠ": 4362,
      "Ġthought": 4363,
      "DecemberĠ": 4364,
      "HĠ": 4365,
      "Ne": 4366,
      "fing": 4367,
      "hoodĠ": 4368,
      "itleĠ": 4369,
      "attend": 4370,
      "propertyĠ": 4371,
      "maybeĠ": 4372,
      "'dĠ": 4373,
      "Fre": 4374,
      "Rom": 4375,
      "daugh": 4376,
      "ildĠ": 4377,
      "expos": 4378,
      "ocol": 4379,
      "Stud": 4380,
      "eĠ(": 4381,
      "ate": 4382,
      "inĠ200": 4383,
      "lookingĠforĠ": 4384,
      "customersĠ": 4385,
      "veg": 4386,
      "oriesĠ": 4387,
      "ingĠorĠ": 4388,
      "ĠtoĠmakeĠ": 4389,
      "hairĠ": 4390,
      "eĠtwoĠ": 4391,
      "oppos": 4392,
      "s.ĠIĠ": 4393,
      "years,Ġ": 4394,
      "understandĠ": 4395,
      "hourĠ": 4396,
      "wis": 4397,
      "whe": 4398,
      "brid": 4399,
      "hoursĠ": 4400,
      "environment": 4401,
      "1,": 4402,
      "roundĠ": 4403,
      "Ġthos": 4404,
      "arr": 4405,
      "edĠitĠ": 4406,
      "chi": 4407,
      "hair": 4408,
      "diseas": 4409,
      "screen": 4410,
      "behind": 4411,
      "Bas": 4412,
      "ĠtellĠ": 4413,
      "aĠisĠ": 4414,
      "ential": 4415,
      "onĠmyĠ": 4416,
      "eĠthem": 4417,
      "shotĠ": 4418,
      "peopleĠwhoĠ": 4419,
      "standard": 4420,
      ".com/": 4421,
      "Develop": 4422,
      "liter": 4423,
      ".ĊWeĠ": 4424,
      "age": 4425,
      "sĠthatĠareĠ": 4426,
      "haven": 4427,
      ".ĠInĠtheĠ": 4428,
      "moment": 4429,
      "candid": 4430,
      "ors,Ġ": 4431,
      "Ġtheir": 4432,
      "morn": 4433,
      "assess": 4434,
      "WebĠ": 4435,
      "IsĠ": 4436,
      "memberĠ": 4437,
      "aĠC": 4438,
      "edĠatĠtheĠ": 4439,
      "Ġtool": 4440,
      "knewĠ": 4441,
      "apprec": 4442,
      "GreatĠ": 4443,
      "22Ġ": 4444,
      "ju": 4445,
      "push": 4446,
      "chest": 4447,
      "opin": 4448,
      "DavidĠ": 4449,
      "ham": 4450,
      "psych": 4451,
      "itorĠ": 4452,
      "elopĠ": 4453,
      "conv": 4454,
      "ationĠinĠ": 4455,
      "Champ": 4456,
      "engthĠ": 4457,
      "pairĠ": 4458,
      "official": 4459,
      "North": 4460,
      "lowerĠ": 4461,
      "young": 4462,
      "client": 4463,
      "securityĠ": 4464,
      "9.": 4465,
      "ouchĠ": 4466,
      "atoryĠ": 4467,
      "esĠwereĠ": 4468,
      "dead": 4469,
      "character": 4470,
      "bus": 4471,
      "ĊC": 4472,
      "stick": 4473,
      "ofĠourĠ": 4474,
      "Ġtrack": 4475,
      "however,Ġ": 4476,
      "listen": 4477,
      "materialĠ": 4478,
      "ious": 4479,
      "ĠtopĠ": 4480,
      "questionĠ": 4481,
      "economicĠ": 4482,
      "previousĠ": 4483,
      "victim": 4484,
      "(S": 4485,
      "bitĠ": 4486,
      "doll": 4487,
      "insid": 4488,
      "enabl": 4489,
      "es:Ġ": 4490,
      "le-": 4491,
      "s.ĠThisĠ": 4492,
      "aĠsec": 4493,
      "innerĠ": 4494,
      "8.": 4495,
      "fit": 4496,
      "and/": 4497,
      "divers": 4498,
      "termĠ": 4499,
      "controll": 4500,
      "likelyĠtoĠ": 4501,
      "ĠthemĠtoĠ": 4502,
      "watchĠ": 4503,
      "Sam": 4504,
      "dedic": 4505,
      "ine,Ġ": 4506,
      "et,Ġ": 4507,
      "intell": 4508,
      "means": 4509,
      "death": 4510,
      "Phot": 4511,
      "growingĠ": 4512,
      "holid": 4513,
      "crow": 4514,
      "cardĠ": 4515,
      "andĠaĠ": 4516,
      "observ": 4517,
      "gett": 4518,
      "officialĠ": 4519,
      "wonâĢĻtĠ": 4520,
      "AtĠ": 4521,
      "TVĠ": 4522,
      "s'Ġ": 4523,
      "uff": 4524,
      "Â®": 4525,
      "worth": 4526,
      "makeĠtheĠ": 4527,
      "atedĠwithĠ": 4528,
      "aĠsingleĠ": 4529,
      "beganĠ": 4530,
      "human": 4531,
      "gard": 4532,
      "inĠL": 4533,
      "âĢĻsĠtheĠ": 4534,
      "spentĠ": 4535,
      "outsid": 4536,
      "sheĠwasĠ": 4537,
      "learningĠ": 4538,
      "modernĠ": 4539,
      "largestĠ": 4540,
      "responsibleĠ": 4541,
      "Gam": 4542,
      "isionĠ": 4543,
      "umentĠ": 4544,
      "iverĠ": 4545,
      "17Ġ": 4546,
      "inĠM": 4547,
      "quot": 4548,
      "goesĠ": 4549,
      "soĠthatĠ": 4550,
      "Ġtoo": 4551,
      "edĠanĠ": 4552,
      "academ": 4553,
      "reserv": 4554,
      "benefit": 4555,
      "year-oldĠ": 4556,
      "pickĠ": 4557,
      "wast": 4558,
      "reven": 4559,
      "edĠherĠ": 4560,
      "Institut": 4561,
      "likeĠaĠ": 4562,
      "approv": 4563,
      "Dist": 4564,
      "Jes": 4565,
      "industri": 4566,
      "obvi": 4567,
      "phas": 4568,
      "ackĠofĠ": 4569,
      "commercialĠ": 4570,
      "4,Ġ": 4571,
      "Hist": 4572,
      "SoĠ": 4573,
      "Wom": 4574,
      "nar": 4575,
      "es.": 4576,
      "ed,ĠandĠ": 4577,
      "wait": 4578,
      "opportunityĠtoĠ": 4579,
      "Ġtravel": 4580,
      "FebruaryĠ": 4581,
      "lad": 4582,
      "edĠorĠ": 4583,
      "occas": 4584,
      "yearsĠofĠ": 4585,
      "data": 4586,
      "example,Ġ": 4587,
      "judg": 4588,
      "Govern": 4589,
      "sĠforĠtheĠ": 4590,
      "reachĠ": 4591,
      ".ĊR": 4592,
      "ureĠandĠ": 4593,
      "year,Ġ": 4594,
      "purchaseĠ": 4595,
      "Republic": 4596,
      "Ke": 4597,
      "hotĠ": 4598,
      "chann": 4599,
      "ournam": 4600,
      "strict": 4601,
      "prev": 4602,
      "lym": 4603,
      "arget": 4604,
      "ByĠ": 4605,
      "iateĠ": 4606,
      "ll": 4607,
      "vac": 4608,
      "ocalĠ": 4609,
      "meanĠ": 4610,
      "downĠtheĠ": 4611,
      "ĠthroughoutĠtheĠ": 4612,
      "exactlyĠ": 4613,
      "Ġtalk": 4614,
      "ĠtoĠgetĠ": 4615,
      "agenc": 4616,
      "ellingĠ": 4617,
      "ustomĠ": 4618,
      "full": 4619,
      "possible": 4620,
      "clearĠ": 4621,
      "SanĠ": 4622,
      "omb": 4623,
      "ations.Ġ": 4624,
      "ability": 4625,
      "existingĠ": 4626,
      "BestĠ": 4627,
      "Li": 4628,
      "Port": 4629,
      "civ": 4630,
      "fileĠ": 4631,
      "sourceĠ": 4632,
      "one.Ġ": 4633,
      "forĠyou": 4634,
      "ousand": 4635,
      "address": 4636,
      "playingĠ": 4637,
      "hopeĠ": 4638,
      "government": 4639,
      "solution": 4640,
      "HouseĠ": 4641,
      "6.": 4642,
      "aĠtr": 4643,
      "hus": 4644,
      "hund": 4645,
      "asĠitĠ": 4646,
      "suff": 4647,
      "overallĠ": 4648,
      "mentĠandĠ": 4649,
      "aĠlargeĠ": 4650,
      "differenceĠ": 4651,
      "itionĠofĠ": 4652,
      "growthĠ": 4653,
      "'s": 4654,
      "(3": 4655,
      "Ġtechn": 4656,
      "ary,Ġ": 4657,
      "grat": 4658,
      "contact": 4659,
      "guarant": 4660,
      ".ĠWithĠ": 4661,
      "yourselfĠ": 4662,
      "directĠ": 4663,
      "mechan": 4664,
      "edĠofĠ": 4665,
      "amaĠ": 4666,
      "aĠbigĠ": 4667,
      "courtĠ": 4668,
      "hearĠ": 4669,
      "ONĠ": 4670,
      "impactĠ": 4671,
      "relationshipĠ": 4672,
      "__": 4673,
      "e,": 4674,
      "mit": 4675,
      ".ĊG": 4676,
      "Play": 4677,
      "mass": 4678,
      "ofĠthatĠ": 4679,
      "styl": 4680,
      "isnâĢĻtĠ": 4681,
      "intend": 4682,
      "answer": 4683,
      "simpleĠ": 4684,
      "considerĠ": 4685,
      ",ĠH": 4686,
      "optim": 4687,
      "ateĠandĠ": 4688,
      "scient": 4689,
      "whatĠyouĠ": 4690,
      "funĠ": 4691,
      "redi": 4692,
      "196": 4693,
      "productionĠ": 4694,
      "developĠ": 4695,
      "standingĠ": 4696,
      "Servic": 4697,
      "System": 4698,
      "37": 4699,
      "swit": 4700,
      "Ġtechnolog": 4701,
      ".ĠY": 4702,
      "Int": 4703,
      "whenĠitĠ": 4704,
      "saidĠtheĠ": 4705,
      "consult": 4706,
      "alongĠwithĠ": 4707,
      "ISĠ": 4708,
      ",Ġbut": 4709,
      "edĠintoĠ": 4710,
      "broughtĠ": 4711,
      "movieĠ": 4712,
      "requirement": 4713,
      "featureĠ": 4714,
      "Oh": 4715,
      "opleĠ": 4716,
      "walkĠ": 4717,
      "ewor": 4718,
      "co-": 4719,
      "matter": 4720,
      "ologyĠ": 4721,
      "maxim": 4722,
      "Profess": 4723,
      "La": 4724,
      "painĠ": 4725,
      "sentĠ": 4726,
      "ane": 4727,
      "arrang": 4728,
      "aĠB": 4729,
      "thĠandĠ": 4730,
      "amsĠ": 4731,
      "withĠtheirĠ": 4732,
      "sustain": 4733,
      "neg": 4734,
      "uggl": 4735,
      ".ĠItĠwasĠ": 4736,
      "requiredĠ": 4737,
      "enoughĠtoĠ": 4738,
      "NY": 4739,
      "TE": 4740,
      "fam": 4741,
      "areĠnotĠ": 4742,
      "strength": 4743,
      "park": 4744,
      "aĠlong": 4745,
      "45": 4746,
      "ixĠ": 4747,
      "journ": 4748,
      "non": 4749,
      "inoĠ": 4750,
      "stopp": 4751,
      "eĠtheĠt": 4752,
      "eventsĠ": 4753,
      "izationĠ": 4754,
      "award": 4755,
      "From": 4756,
      "maz": 4757,
      "ronicĠ": 4758,
      "reflect": 4759,
      "excellentĠ": 4760,
      "6,Ġ": 4761,
      "Wal": 4762,
      ".ĠV": 4763,
      "adjust": 4764,
      "IĠwillĠ": 4765,
      "ive,Ġ": 4766,
      "2010": 4767,
      "Ġtime.Ġ": 4768,
      "crimin": 4769,
      "prior": 4770,
      "accessĠtoĠ": 4771,
      ":00Ġ": 4772,
      "Over": 4773,
      "castĠ": 4774,
      "alb": 4775,
      "iment": 4776,
      "alsoĠbeĠ": 4777,
      "surround": 4778,
      "getĠtoĠ": 4779,
      "issuesĠ": 4780,
      "ratherĠthanĠ": 4781,
      "burn": 4782,
      "ĠthoughĠ": 4783,
      "Str": 4784,
      "Chur": 4785,
      "deepĠ": 4786,
      "cool": 4787,
      "HealthĠ": 4788,
      ";ĠandĠ": 4789,
      "Av": 4790,
      "Day": 4791,
      "cĠ": 4792,
      "easeĠ": 4793,
      "iveryĠ": 4794,
      "metĠ": 4795,
      "ities,Ġ": 4796,
      "ifĠtheyĠ": 4797,
      "possibl": 4798,
      "aĠser": 4799,
      "fash": 4800,
      "ingĠhisĠ": 4801,
      "etterĠ": 4802,
      "heâĢĻsĠ": 4803,
      "pret": 4804,
      "singleĠ": 4805,
      "Europ": 4806,
      "cer": 4807,
      "edĠthatĠtheĠ": 4808,
      "div": 4809,
      "udd": 4810,
      "compon": 4811,
      "degre": 4812,
      "HighĠ": 4813,
      "sevenĠ": 4814,
      "slow": 4815,
      "ĠthoseĠwhoĠ": 4816,
      "bornĠ": 4817,
      "\"TheĠ": 4818,
      "IR": 4819,
      "soĠtheĠ": 4820,
      "subst": 4821,
      "Angel": 4822,
      "BusinessĠ": 4823,
      "bad": 4824,
      "mir": 4825,
      "ĊD": 4826,
      "ingĠitĠ": 4827,
      "fore": 4828,
      "weâĢĻreĠ": 4829,
      "âĢľTheĠ": 4830,
      "ĠtryĠ": 4831,
      "awareĠ": 4832,
      "providingĠ": 4833,
      "Counc": 4834,
      "Word": 4835,
      "e?Ċ": 4836,
      "ingredi": 4837,
      "esĠtoĠtheĠ": 4838,
      "suffer": 4839,
      "afford": 4840,
      "atedĠbyĠ": 4841,
      "bring": 4842,
      "skinĠ": 4843,
      "simpl": 4844,
      "initi": 4845,
      "High": 4846,
      "city": 4847,
      "wedd": 4848,
      "ingĠupĠ": 4849,
      "imageĠ": 4850,
      "âĢĿĠandĠ": 4851,
      "pre-": 4852,
      "Read": 4853,
      "Att": 4854,
      "Mac": 4855,
      "whatĠtheĠ": 4856,
      "earnĠ": 4857,
      "endĠofĠ": 4858,
      "Conn": 4859,
      "extraĠ": 4860,
      "significantĠ": 4861,
      "e)": 4862,
      "eenĠ": 4863,
      "idenc": 4864,
      "conven": 4865,
      "exhib": 4866,
      "ofĠtheĠt": 4867,
      "linkĠ": 4868,
      "desp": 4869,
      "Go": 4870,
      "me.Ġ": 4871,
      "ycl": 4872,
      "erm": 4873,
      "oubl": 4874,
      "though": 4875,
      "oss": 4876,
      "heĠhadĠ": 4877,
      "women": 4878,
      "Tod": 4879,
      "iou": 4880,
      "roĠ": 4881,
      "inch": 4882,
      "itĠwillĠ": 4883,
      "apart": 4884,
      "effectĠ": 4885,
      ".ĠAfterĠ": 4886,
      "gamesĠ": 4887,
      "course,Ġ": 4888,
      "http://www.": 4889,
      "e;Ġ": 4890,
      "mur": 4891,
      "reh": 4892,
      "ically": 4893,
      "Ind": 4894,
      ".ĠHisĠ": 4895,
      "seriesĠ": 4896,
      "incredib": 4897,
      "ParkĠ": 4898,
      "e/": 4899,
      "y'sĠ": 4900,
      "recover": 4901,
      "withĠthisĠ": 4902,
      "WhyĠ": 4903,
      "surg": 4904,
      "automat": 4905,
      ";Ċ": 4906,
      "MoreĠ": 4907,
      "OSĠ": 4908,
      "Ð°": 4909,
      "WhiteĠ": 4910,
      "wouldĠhaveĠ": 4911,
      "domin": 4912,
      "screenĠ": 4913,
      "60Ġ": 4914,
      "Mil": 4915,
      "PD": 4916,
      "rant": 4917,
      "alĠofĠ": 4918,
      "shopĠ": 4919,
      "chool": 4920,
      "risk": 4921,
      "applicationĠ": 4922,
      "driver": 4923,
      "similar": 4924,
      "and/orĠ": 4925,
      "fan": 4926,
      "hun": 4927,
      "TheseĠ": 4928,
      ",âĢĿĠsaidĠ": 4929,
      "van": 4930,
      "usersĠ": 4931,
      "confirm": 4932,
      "appar": 4933,
      "produceĠ": 4934,
      "broad": 4935,
      "structureĠ": 4936,
      "whichĠtheĠ": 4937,
      "maintain": 4938,
      "interview": 4939,
      "23Ġ": 4940,
      "elseĠ": 4941,
      "fordĠ": 4942,
      "asĠIĠ": 4943,
      "ently": 4944,
      "plent": 4945,
      "looksĠ": 4946,
      "Mal": 4947,
      "ium": 4948,
      "iPh": 4949,
      "ofĠmyĠ": 4950,
      "champ": 4951,
      "oph": 4952,
      "diagn": 4953,
      "rawĠ": 4954,
      "WhileĠ": 4955,
      "2013Ġ": 4956,
      "olderĠ": 4957,
      "lookedĠ": 4958,
      "happyĠ": 4959,
      "generallyĠ": 4960,
      "MS": 4961,
      "Me": 4962,
      "warm": 4963,
      "sĠbyĠ": 4964,
      "stockĠ": 4965,
      "ation.Ċ": 4966,
      "ĠtoĠthisĠ": 4967,
      "suppos": 4968,
      "Ġtraff": 4969,
      "ForĠtheĠ": 4970,
      "individual": 4971,
      "IĠthink": 4972,
      "neĠ": 4973,
      "amin": 4974,
      "presidentĠ": 4975,
      "ield": 4976,
      "CheckĠ": 4977,
      "OS": 4978,
      "ĠH": 4979,
      "oralĠ": 4980,
      "areĠth": 4981,
      "ing:Ġ": 4982,
      "aĠp": 4983,
      "shopp": 4984,
      "he'sĠ": 4985,
      "fireĠ": 4986,
      "anyĠotherĠ": 4987,
      "letter": 4988,
      "ertain": 4989,
      "howĠtheĠ": 4990,
      "%ĠofĠ": 4991,
      "front": 4992,
      "ieldĠ": 4993,
      "EuropeanĠ": 4994,
      "(andĠ": 4995,
      "Now": 4996,
      "dict": 4997,
      "isĠnoĠ": 4998,
      "forĠanĠ": 4999,
      "ĠtoĠtheirĠ": 5000,
      "soĠmuchĠ": 5001,
      "saw": 5002,
      "accessĠ": 5003,
      "deviceĠ": 5004,
      "oxĠ": 5005,
      "iesĠtoĠ": 5006,
      "burg": 5007,
      "5,Ġ": 5008,
      "hasĠtheĠ": 5009,
      "ed.": 5010,
      "outsideĠ": 5011,
      "becauseĠofĠ": 5012,
      "ubb": 5013,
      "download": 5014,
      "practiceĠ": 5015,
      "releaseĠ": 5016,
      "platform": 5017,
      "safetyĠ": 5018,
      "Def": 5019,
      "PE": 5020,
      "TV": 5021,
      "freshĠ": 5022,
      "sha": 5023,
      "ually": 5024,
      "ploy": 5025,
      "orĠaĠ": 5026,
      "expert": 5027,
      "irt": 5028,
      "weĠwereĠ": 5029,
      "ResearchĠ": 5030,
      "successĠ": 5031,
      "Micros": 5032,
      "staff": 5033,
      "Af": 5034,
      "rep": 5035,
      "esĊ-Ġ": 5036,
      "quickĠ": 5037,
      "network": 5038,
      "atorsĠ": 5039,
      "repe": 5040,
      "itselfĠ": 5041,
      "youĠmayĠ": 5042,
      "eĠtoĠbeĠ": 5043,
      "commod": 5044,
      "readyĠtoĠ": 5045,
      "underst": 5046,
      "ClickĠ": 5047,
      ".ĊButĠ": 5048,
      "bri": 5049,
      "lar": 5050,
      "num": 5051,
      "sectionĠ": 5052,
      "erveĠ": 5053,
      "shad": 5054,
      "shownĠ": 5055,
      "Market": 5056,
      "Ital": 5057,
      "yourself": 5058,
      "interestingĠ": 5059,
      "-upĠ": 5060,
      "Just": 5061,
      "Leg": 5062,
      "aiĠ": 5063,
      "edĠfromĠtheĠ": 5064,
      "isod": 5065,
      "eticĠ": 5066,
      "ollow": 5067,
      "edĠinĠaĠ": 5068,
      "CD": 5069,
      "OtherĠ": 5070,
      "eightĠ": 5071,
      "olfĠ": 5072,
      "spendĠ": 5073,
      "tionsĠ": 5074,
      "readingĠ": 5075,
      "normalĠ": 5076,
      "reveal": 5077,
      "Accord": 5078,
      "amazingĠ": 5079,
      "furn": 5080,
      "top": 5081,
      ".ĊW": 5082,
      "ativelyĠ": 5083,
      "ScienceĠ": 5084,
      "hardĠtoĠ": 5085,
      "Person": 5086,
      "whenĠtheyĠ": 5087,
      "ĊF": 5088,
      "Ġ(": 5089,
      "el,Ġ": 5090,
      "age.Ġ": 5091,
      "appe": 5092,
      "s.ĠItĠ": 5093,
      "prevent": 5094,
      "sellĠ": 5095,
      "goĠtoĠ": 5096,
      "decad": 5097,
      "capac": 5098,
      "realiz": 5099,
      ".ĠThereĠareĠ": 5100,
      "Review": 5101,
      "FridayĠ": 5102,
      "8,Ġ": 5103,
      "Ġtax": 5104,
      "akenĠ": 5105,
      "heĠisĠ": 5106,
      "addedĠ": 5107,
      "ratherĠ": 5108,
      "correc": 5109,
      "Blu": 5110,
      "wrong": 5111,
      "demand": 5112,
      "spirit": 5113,
      "manufactur": 5114,
      "agingĠ": 5115,
      "s.ĠWeĠ": 5116,
      "coreĠ": 5117,
      "ptom": 5118,
      "extremelyĠ": 5119,
      "EastĠ": 5120,
      "Sk": 5121,
      "TM": 5122,
      "fab": 5123,
      "ĠthirdĠ": 5124,
      "club": 5125,
      "etĠandĠ": 5126,
      "scienceĠ": 5127,
      "development": 5128,
      "Work": 5129,
      "healthyĠ": 5130,
      ",ĠthereĠareĠ": 5131,
      "keptĠ": 5132,
      "ĠC": 5133,
      "clim": 5134,
      "heatĠ": 5135,
      ".ĠSomeĠ": 5136,
      "doĠyouĠ": 5137,
      "makeĠaĠ": 5138,
      "court": 5139,
      "weeksĠ": 5140,
      "fresh": 5141,
      "ideasĠ": 5142,
      "volunte": 5143,
      "JamesĠ": 5144,
      "ChristmasĠ": 5145,
      "Vol": 5146,
      "gn": 5147,
      "grand": 5148,
      "incor": 5149,
      "Carol": 5150,
      "A,Ġ": 5151,
      "Mart": 5152,
      "ferĠ": 5153,
      "inĠorderĠtoĠ": 5154,
      "ooth": 5155,
      "othĠ": 5156,
      "actualĠ": 5157,
      "istic": 5158,
      "basicĠ": 5159,
      "Click": 5160,
      "investmentĠ": 5161,
      "goingĠtoĠbeĠ": 5162,
      "future": 5163,
      "Cong": 5164,
      "Rem": 5165,
      "keĠ": 5166,
      "mist": 5167,
      "onc": 5168,
      "ationsĠofĠ": 5169,
      "whatĠIĠ": 5170,
      "Arch": 5171,
      "INGĠ": 5172,
      "educationĠ": 5173,
      "Jos": 5174,
      "Rad": 5175,
      "StatesĠ": 5176,
      "ableĠandĠ": 5177,
      "followĠ": 5178,
      "ING": 5179,
      "activitiesĠ": 5180,
      "policyĠ": 5181,
      "49": 5182,
      "Div": 5183,
      "ature": 5184,
      "edĠby": 5185,
      "asĠmuchĠ": 5186,
      "200Ġ": 5187,
      "ittingĠ": 5188,
      "remainĠ": 5189,
      "IndianĠ": 5190,
      "girlĠ": 5191,
      "GetĠ": 5192,
      "althoughĠ": 5193,
      "it.Ċ": 5194,
      ".ĠOneĠ": 5195,
      "ility": 5196,
      "plusĠ": 5197,
      "anticĠ": 5198,
      "iesĠthatĠ": 5199,
      "FrenchĠ": 5200,
      "half": 5201,
      "Jack": 5202,
      "ageĠandĠ": 5203,
      "exclus": 5204,
      "anceĠandĠ": 5205,
      "rightsĠ": 5206,
      "churchĠ": 5207,
      "farm": 5208,
      "s:Ċ": 5209,
      "libr": 5210,
      "whoĠisĠ": 5211,
      "Park": 5212,
      "Ġtogether": 5213,
      "Elect": 5214,
      "biggestĠ": 5215,
      "Japan": 5216,
      ",Ġ\"": 5217,
      "assign": 5218,
      "2011": 5219,
      "scap": 5220,
      "greaterĠ": 5221,
      "cycl": 5222,
      "LL": 5223,
      "e!Ċ": 5224,
      "soĠmanyĠ": 5225,
      "guest": 5226,
      "highestĠ": 5227,
      "namedĠ": 5228,
      "Met": 5229,
      "middleĠ": 5230,
      "mort": 5231,
      "colorĠ": 5232,
      "necessaryĠ": 5233,
      "memor": 5234,
      "enhanc": 5235,
      "fortĠ": 5236,
      "edĠtheirĠ": 5237,
      "chair": 5238,
      "umn": 5239,
      "story": 5240,
      "virt": 5241,
      "South": 5242,
      "fu": 5243,
      "ĊIĠ": 5244,
      "unk": 5245,
      "ightsĠ": 5246,
      "enceĠofĠ": 5247,
      "whenĠheĠ": 5248,
      "eyeĠ": 5249,
      "matchĠ": 5250,
      "requestĠ": 5251,
      "patientĠ": 5252,
      "ChristianĠ": 5253,
      "surviv": 5254,
      "alco": 5255,
      ".ĠUn": 5256,
      "edlyĠ": 5257,
      "eĠtheseĠ": 5258,
      "Studi": 5259,
      "strang": 5260,
      "ired": 5261,
      "Prot": 5262,
      "myselfĠ": 5263,
      "minutesĠ": 5264,
      "receivedĠ": 5265,
      "kidsĠ": 5266,
      "careerĠ": 5267,
      "AreĠ": 5268,
      "RA": 5269,
      "Ros": 5270,
      "SS": 5271,
      "oonĠ": 5272,
      "inĠtoĠ": 5273,
      "forwardĠ": 5274,
      "eĠthan": 5275,
      "weĠwillĠ": 5276,
      "relat": 5277,
      "marketingĠ": 5278,
      "benefitĠ": 5279,
      "-timeĠ": 5280,
      "Every": 5281,
      "PA": 5282,
      "PC": 5283,
      "ĠT": 5284,
      "armĠ": 5285,
      "allĠofĠtheĠ": 5286,
      "premi": 5287,
      "monitor": 5288,
      "edĠbyĠaĠ": 5289,
      "makeĠitĠ": 5290,
      "becauseĠtheyĠ": 5291,
      "showsĠ": 5292,
      "organization": 5293,
      "efullyĠ": 5294,
      "Isra": 5295,
      "Democrat": 5296,
      ".)Ġ": 5297,
      "ardi": 5298,
      "edĠaboutĠ": 5299,
      "Ġteac": 5300,
      "Class": 5301,
      "powerfulĠ": 5302,
      "primaryĠ": 5303,
      "45Ġ": 5304,
      "Mag": 5305,
      "Pre": 5306,
      "coffe": 5307,
      "ration": 5308,
      "signĠ": 5309,
      "wild": 5310,
      "ĊThisĠ": 5311,
      "another": 5312,
      "icip": 5313,
      "ationĠ(": 5314,
      ":ĠS": 5315,
      "Stor": 5316,
      "lotsĠofĠ": 5317,
      "Aut": 5318,
      "UseĠ": 5319,
      "vict": 5320,
      "e.ĠThisĠ": 5321,
      ".ĠAc": 5322,
      "2012Ġ": 5323,
      "pursu": 5324,
      "stream": 5325,
      "75": 5326,
      "Lo": 5327,
      "MostĠ": 5328,
      "baseĠ": 5329,
      "hat": 5330,
      "onĠhisĠ": 5331,
      "optionĠ": 5332,
      "umin": 5333,
      "2020": 5334,
      "slight": 5335,
      ".ĠNoĠ": 5336,
      "ANDĠ": 5337,
      "body": 5338,
      "AppleĠ": 5339,
      "decision": 5340,
      "emporaryĠ": 5341,
      "Det": 5342,
      "mm": 5343,
      "teĠ": 5344,
      "Ġtre": 5345,
      "olar": 5346,
      "secut": 5347,
      "eĠtrans": 5348,
      "decidedĠtoĠ": 5349,
      "voic": 5350,
      "Engine": 5351,
      "wif": 5352,
      "Ġthank": 5353,
      "andĠIĠ": 5354,
      "itĠhasĠ": 5355,
      "wasĠnotĠ": 5356,
      "years.Ġ": 5357,
      "ugĠ": 5358,
      "greenĠ": 5359,
      "Scot": 5360,
      "figureĠ": 5361,
      "licens": 5362,
      "BigĠ": 5363,
      "Journ": 5364,
      "Mill": 5365,
      "hostĠ": 5366,
      "áĢ": 5367,
      "atingĠtheĠ": 5368,
      "entiallyĠ": 5369,
      "entertain": 5370,
      "partn": 5371,
      "music": 5372,
      "Color": 5373,
      "neighbor": 5374,
      "38": 5375,
      "Amaz": 5376,
      "Year": 5377,
      "iger": 5378,
      "shel": 5379,
      "aster": 5380,
      "salesĠ": 5381,
      "limitedĠ": 5382,
      "Gen": 5383,
      "ORĠ": 5384,
      "flex": 5385,
      "goldĠ": 5386,
      "relev": 5387,
      "exic": 5388,
      "weal": 5389,
      "someĠofĠ": 5390,
      "later": 5391,
      "patient": 5392,
      "PublicĠ": 5393,
      "GeneralĠ": 5394,
      "insteadĠofĠ": 5395,
      "Cat": 5396,
      "Mer": 5397,
      "gi": 5398,
      "ĠthatĠheĠ": 5399,
      "click": 5400,
      "breakĠ": 5401,
      "stuff": 5402,
      "citiz": 5403,
      "Coll": 5404,
      "Hum": 5405,
      "ingsĠandĠ": 5406,
      "itect": 5407,
      "edĠout": 5408,
      "Chic": 5409,
      "becauseĠtheĠ": 5410,
      "hadĠtheĠ": 5411,
      "avoidĠ": 5412,
      "Twit": 5413,
      "dress": 5414,
      "south": 5415,
      "you'llĠ": 5416,
      "Chil": 5417,
      "ĠthatĠthisĠ": 5418,
      "paperĠ": 5419,
      "'sĠtheĠ": 5420,
      "-th": 5421,
      "IE": 5422,
      "Jul": 5423,
      "SeptemberĠ": 5424,
      "ling": 5425,
      "proper": 5426,
      "helpsĠ": 5427,
      "designedĠtoĠ": 5428,
      "radioĠ": 5429,
      "perhapsĠ": 5430,
      "crip": 5431,
      "warĠ": 5432,
      "ĠW": 5433,
      "inĠthatĠ": 5434,
      "alleg": 5435,
      "aticĠ": 5436,
      "rollĠ": 5437,
      "commit": 5438,
      "way,Ġ": 5439,
      "runn": 5440,
      "deliveryĠ": 5441,
      "achieveĠ": 5442,
      "Ret": 5443,
      "ble": 5444,
      "dut": 5445,
      "pil": 5446,
      "ĠD": 5447,
      "whit": 5448,
      "abov": 5449,
      "Ġtru": 5450,
      "2013": 5451,
      "ensureĠ": 5452,
      "Ġthat,Ġ": 5453,
      "glassĠ": 5454,
      "Trans": 5455,
      "organis": 5456,
      "Ġtherap": 5457,
      "MichaelĠ": 5458,
      "asĠtoĠ": 5459,
      ".ĠAd": 5460,
      "cris": 5461,
      "findĠtheĠ": 5462,
      "lessĠthanĠ": 5463,
      "window": 5464,
      "WesternĠ": 5465,
      "27Ġ": 5466,
      "34": 5467,
      "ITĠ": 5468,
      "bol": 5469,
      "ce": 5470,
      "gan": 5471,
      "plantĠ": 5472,
      ":ĠâĢľ": 5473,
      "encesĠ": 5474,
      "martĠ": 5475,
      "letterĠ": 5476,
      "recogniz": 5477,
      "ecauseĠ": 5478,
      "(C": 5479,
      "IV": 5480,
      "Kar": 5481,
      ".ĊForĠ": 5482,
      "whatĠisĠ": 5483,
      "wasnâĢĻtĠ": 5484,
      "discus": 5485,
      "approxim": 5486,
      "Committ": 5487,
      "Corpor": 5488,
      "summerĠ": 5489,
      "Hom": 5490,
      "Spr": 5491,
      "pon": 5492,
      "yr": 5493,
      "yrightĠ": 5494,
      "insideĠ": 5495,
      "ership": 5496,
      "alĠt": 5497,
      "esĠhaveĠ": 5498,
      "ed.ĠTheĠ": 5499,
      "andĊ": 5500,
      "morningĠ": 5501,
      "struggl": 5502,
      "tion,Ġ": 5503,
      "myself": 5504,
      "environmentalĠ": 5505,
      "won'tĠ": 5506,
      "dream": 5507,
      "1)Ġ": 5508,
      "Jew": 5509,
      "motherĠ": 5510,
      "yester": 5511,
      "Ĥ¬": 5512,
      ".ĊItĠ": 5513,
      "anĠun": 5514,
      "ancyĠ": 5515,
      "firmĠ": 5516,
      "fineĠ": 5517,
      "upĠwithĠ": 5518,
      "egg": 5519,
      "easi": 5520,
      "knowĠthatĠ": 5521,
      ".ĠWith": 5522,
      "examin": 5523,
      "collegeĠ": 5524,
      ".|Ċ|": 5525,
      ":30Ġ": 5526,
      "din": 5527,
      "wiseĠ": 5528,
      "alongĠtheĠ": 5529,
      "akesĠ": 5530,
      "black": 5531,
      "markĠ": 5532,
      "statement": 5533,
      "amilyĠ": 5534,
      "name": 5535,
      "increasedĠ": 5536,
      "analysisĠ": 5537,
      "untilĠtheĠ": 5538,
      "BritishĠ": 5539,
      "39": 5540,
      "Wil": 5541,
      "mel": 5542,
      "mail": 5543,
      "along": 5544,
      "removeĠ": 5545,
      "wash": 5546,
      "weekend": 5547,
      "long-": 5548,
      "six": 5549,
      "sleep": 5550,
      "55": 5551,
      "?âĢĿĠ": 5552,
      "HO": 5553,
      "aheadĠ": 5554,
      "jour": 5555,
      "rent": 5556,
      "inĠwhichĠ": 5557,
      "s,ĠwhichĠ": 5558,
      "richĠ": 5559,
      "CaliforniaĠ": 5560,
      "appropriateĠ": 5561,
      "Gard": 5562,
      "PS": 5563,
      "a.m": 5564,
      "datedĠ": 5565,
      "asĠweĠ": 5566,
      "ations": 5567,
      "IĠcouldĠ": 5568,
      "photoĠ": 5569,
      "impact": 5570,
      "Eg": 5571,
      "bound": 5572,
      "ualsĠ": 5573,
      "alway": 5574,
      "ing.ĠTheĠ": 5575,
      "ĠtoĠhaveĠ": 5576,
      "abb": 5577,
      "cond": 5578,
      "otallyĠ": 5579,
      "ured": 5580,
      "getĠaĠ": 5581,
      "programm": 5582,
      "clientsĠ": 5583,
      "InternetĠ": 5584,
      "momentĠ": 5585,
      "similarĠ": 5586,
      "\"ĠandĠ": 5587,
      "Bi": 5588,
      "NB": 5589,
      "RedĠ": 5590,
      "Sub": 5591,
      "gun": 5592,
      "westĠ": 5593,
      "ingĠonĠtheĠ": 5594,
      "esh": 5595,
      "sho": 5596,
      "perspect": 5597,
      "anti-": 5598,
      "finishedĠ": 5599,
      "icket": 5600,
      "ĠtraditionalĠ": 5601,
      "Minist": 5602,
      "absolutelyĠ": 5603,
      "Sw": 5604,
      "iansĠ": 5605,
      "alent": 5606,
      "sterĠ": 5607,
      "consc": 5608,
      "s,ĠorĠ": 5609,
      "attor": 5610,
      "addres": 5611,
      "levelĠofĠ": 5612,
      "28Ġ": 5613,
      "Fri": 5614,
      "hem": 5615,
      "instruc": 5616,
      "onn": 5617,
      "elin": 5618,
      "esĠatĠ": 5619,
      "learĠ": 5620,
      "spon": 5621,
      "actionsĠ": 5622,
      "extens": 5623,
      "legis": 5624,
      "auĠ": 5625,
      "server": 5626,
      "stead": 5627,
      "Medic": 5628,
      "rock": 5629,
      "Societ": 5630,
      "immediatelyĠ": 5631,
      "ousandsĠofĠ": 5632,
      "DA": 5633,
      "Sur": 5634,
      "hugeĠ": 5635,
      "incomeĠ": 5636,
      "itemĠ": 5637,
      "isĠinĠ": 5638,
      "roy": 5639,
      "orĠofĠtheĠ": 5640,
      "ify": 5641,
      "ityĠofĠtheĠ": 5642,
      "awes": 5643,
      "regular": 5644,
      "suchĠaĠ": 5645,
      "consideredĠ": 5646,
      "focus": 5647,
      "BoardĠ": 5648,
      "WindowsĠ": 5649,
      "**": 5650,
      "44": 5651,
      ";ĠtheĠ": 5652,
      "Air": 5653,
      "boo": 5654,
      "ero": 5655,
      "priseĠ": 5656,
      "many": 5657,
      "attackĠ": 5658,
      "visionĠ": 5659,
      ".ĊAsĠ": 5660,
      "collabor": 5661,
      "interestedĠinĠ": 5662,
      "video": 5663,
      "NewsĠ": 5664,
      "billionĠ": 5665,
      "balanc": 5666,
      "CanĠ": 5667,
      "bow": 5668,
      "fant": 5669,
      "gainĠ": 5670,
      "hamĠ": 5671,
      "ontoĠ": 5672,
      "els": 5673,
      "rememberĠ": 5674,
      "centralĠ": 5675,
      "IâĢĻllĠ": 5676,
      ",Ġ2013": 5677,
      "feelingĠ": 5678,
      "Atl": 5679,
      "Tor": 5680,
      "sĠandĠtheĠ": 5681,
      "antĠtoĠ": 5682,
      "expensiveĠ": 5683,
      "pattern": 5684,
      "friendlyĠ": 5685,
      "ĠtheyâĢĻreĠ": 5686,
      "drugĠ": 5687,
      "micro": 5688,
      "GroupĠ": 5689,
      "7,Ġ": 5690,
      "Camp": 5691,
      "bag": 5692,
      "vill": 5693,
      "Ð¸": 5694,
      "ors": 5695,
      "aldĠ": 5696,
      "heat": 5697,
      "relax": 5698,
      "so,Ġ": 5699,
      "ĠtrainingĠ": 5700,
      "codeĠ": 5701,
      "machin": 5702,
      "sinceĠtheĠ": 5703,
      "progress": 5704,
      "2Ċ": 5705,
      "DE": 5706,
      "Hot": 5707,
      "ME": 5708,
      "starĠ": 5709,
      "isĠveryĠ": 5710,
      "more.Ġ": 5711,
      "e.âĢĿĊ": 5712,
      "breath": 5713,
      "million": 5714,
      "HomeĠ": 5715,
      "My": 5716,
      "passĠ": 5717,
      "inaryĠ": 5718,
      ",ĠN": 5719,
      "isn'tĠ": 5720,
      "amount": 5721,
      "s.ĠTheyĠ": 5722,
      "odd": 5723,
      "creativeĠ": 5724,
      "parentsĠ": 5725,
      "expens": 5726,
      "correct": 5727,
      ".ĠPleaseĠ": 5728,
      ".ĠWe": 5729,
      "able,Ġ": 5730,
      "HarryĠ": 5731,
      "bottomĠ": 5732,
      "TR": 5733,
      "yle": 5734,
      "Thank": 5735,
      "chos": 5736,
      "comesĠtoĠ": 5737,
      "seat": 5738,
      "episod": 5739,
      "ersĠwhoĠ": 5740,
      "invit": 5741,
      "whatĠtheyĠ": 5742,
      "descrip": 5743,
      "equipmentĠ": 5744,
      "independentĠ": 5745,
      "aĠcoupleĠofĠ": 5746,
      "NowĠ": 5747,
      "heĠt": 5748,
      "sĠcanĠ": 5749,
      "ench": 5750,
      "atĠthisĠ": 5751,
      "still": 5752,
      "youâĢĻveĠ": 5753,
      "10-": 5754,
      "course": 5755,
      "NewĠYork": 5756,
      "symptom": 5757,
      "eedĠ": 5758,
      "eâĢĿĠ": 5759,
      "ped": 5760,
      "raceĠ": 5761,
      "ton,Ġ": 5762,
      "ystem": 5763,
      "ates": 5764,
      "stageĠ": 5765,
      "conserv": 5766,
      "otsĠ": 5767,
      "weak": 5768,
      "known": 5769,
      "includingĠtheĠ": 5770,
      "wasn'tĠ": 5771,
      ",Ġthough": 5772,
      "helpedĠ": 5773,
      "successfulĠ": 5774,
      ").ĠTheĠ": 5775,
      "s!Ġ": 5776,
      "wo": 5777,
      "properĠ": 5778,
      "ender": 5779,
      "scrib": 5780,
      "argetĠ": 5781,
      "areas": 5782,
      "choiceĠ": 5783,
      "Liv": 5784,
      "Miss": 5785,
      "Russ": 5786,
      "ld": 5787,
      "pedĠ": 5788,
      "inspir": 5789,
      ".ĊWhatĠ": 5790,
      "weight": 5791,
      "flowĠ": 5792,
      "president": 5793,
      "poorĠ": 5794,
      "remember": 5795,
      "profitĠ": 5796,
      "etteĠ": 5797,
      ",\"ĠsaidĠ": 5798,
      "heavyĠ": 5799,
      "Sim": 5800,
      "fat": 5801,
      "âĤ¬": 5802,
      "infect": 5803,
      ",ĠK": 5804,
      "adult": 5805,
      "absor": 5806,
      "withĠhisĠ": 5807,
      "oteĠ": 5808,
      "StarĠ": 5809,
      ".ĠIĠhaveĠ": 5810,
      "startingĠ": 5811,
      "growĠ": 5812,
      "functionĠ": 5813,
      "calcul": 5814,
      "mostlyĠ": 5815,
      "veget": 5816,
      "Pac": 5817,
      "fear": 5818,
      "ĊAĠ": 5819,
      "ĠtoĠseeĠ": 5820,
      "identsĠ": 5821,
      "kĠandĠ": 5822,
      "izingĠ": 5823,
      "sureĠtoĠ": 5824,
      "said.ĠâĢľ": 5825,
      "carryĠ": 5826,
      "continueĠ": 5827,
      "UnitedĠStatesĠ": 5828,
      "ServiceĠ": 5829,
      "hotelĠ": 5830,
      "PaulĠ": 5831,
      "33": 5832,
      "Gar": 5833,
      "aud": 5834,
      "west": 5835,
      "y.ĠTheĠ": 5836,
      "yourĠownĠ": 5837,
      "eĠofĠaĠ": 5838,
      "featur": 5839,
      "2009": 5840,
      "vision": 5841,
      "discipl": 5842,
      "dropĠ": 5843,
      "campaign": 5844,
      "GeorgeĠ": 5845,
      "preventĠ": 5846,
      "Lat": 5847,
      "Vide": 5848,
      "bonĠ": 5849,
      "ethĠ": 5850,
      "gift": 5851,
      "ooĠ": 5852,
      "ral": 5853,
      ",Ġand": 5854,
      "ofĠthem": 5855,
      "whether": 5856,
      "adapt": 5857,
      "raq": 5858,
      "compreh": 5859,
      "downloadĠ": 5860,
      "groupĠofĠ": 5861,
      "becomesĠ": 5862,
      "DS": 5863,
      "IDĠ": 5864,
      "JĠ": 5865,
      "darkĠ": 5866,
      "Ġtell": 5867,
      "aĠM": 5868,
      ".ĊE": 5869,
      ".ĊIfĠ": 5870,
      "unit": 5871,
      ".ĠTheĠt": 5872,
      ".ĠAtĠ": 5873,
      "peac": 5874,
      "mayĠhaveĠ": 5875,
      "coachĠ": 5876,
      "Adv": 5877,
      "config": 5878,
      "WashingtonĠ": 5879,
      ":ĠtheĠ": 5880,
      "Hy": 5881,
      "OFĠ": 5882,
      "Sum": 5883,
      "cu": 5884,
      "sĠthisĠ": 5885,
      "asĠyouĠ": 5886,
      "conferenceĠ": 5887,
      "ationĠwithĠ": 5888,
      ".ĠNotĠ": 5889,
      "whateverĠ": 5890,
      "exercis": 5891,
      "(orĠ": 5892,
      "500": 5893,
      "mailĠ": 5894,
      "wearĠ": 5895,
      "elig": 5896,
      "eĠthroughĠ": 5897,
      "ooper": 5898,
      "e.ĠWeĠ": 5899,
      "creatingĠ": 5900,
      "versionĠ": 5901,
      "changesĠ": 5902,
      "ĠthinkingĠ": 5903,
      "freed": 5904,
      "culturalĠ": 5905,
      "animal": 5906,
      "degreeĠ": 5907,
      "Auth": 5908,
      "Iraq": 5909,
      "PartĠ": 5910,
      "goneĠ": 5911,
      "oneĠtoĠ": 5912,
      "edĠforĠtheĠ": 5913,
      "entĠandĠ": 5914,
      "setĠofĠ": 5915,
      "himself": 5916,
      "ĠthereĠwasĠ": 5917,
      "howĠmuchĠ": 5918,
      "needsĠ": 5919,
      "depend": 5920,
      ",Ġtoo": 5921,
      "required": 5922,
      "contractĠ": 5923,
      "militaryĠ": 5924,
      "48": 5925,
      "Bal": 5926,
      "CL": 5927,
      "LastĠ": 5928,
      "Pan": 5929,
      "oon": 5930,
      "ror": 5931,
      "ĠturnĠ": 5932,
      "itl": 5933,
      "aysĠ": 5934,
      "willĠnotĠ": 5935,
      "deep": 5936,
      "athlet": 5937,
      "autom": 5938,
      "protectĠ": 5939,
      "certific": 5940,
      "messag": 5941,
      "),ĠandĠ": 5942,
      "ior": 5943,
      "rig": 5944,
      "s!Ċ": 5945,
      "aĠveryĠ": 5946,
      "accompl": 5947,
      "amountĠ": 5948,
      "âĢĻsĠt": 5949,
      "onĠourĠ": 5950,
      "beat": 5951,
      "argu": 5952,
      "aĠfullĠ": 5953,
      "information,Ġ": 5954,
      "funn": 5955,
      "advent": 5956,
      "ankĠyouĠ": 5957,
      "eĠtooĠ": 5958,
      "safeĠ": 5959,
      "awayĠfromĠ": 5960,
      "seniorĠ": 5961,
      "wonderfulĠ": 5962,
      "diagnos": 5963,
      "1Ċ": 5964,
      "Down": 5965,
      "HE": 5966,
      "King": 5967,
      "Ver": 5968,
      "each": 5969,
      "Ġtrip": 5970,
      ",ĠF": 5971,
      "e,ĠwhichĠ": 5972,
      "dryĠ": 5973,
      "boy": 5974,
      "itiesĠandĠ": 5975,
      "demandĠ": 5976,
      "Ġtogeth": 5977,
      "destin": 5978,
      "babyĠ": 5979,
      "journal": 5980,
      "1:": 5981,
      "UK": 5982,
      "itself": 5983,
      "Any": 5984,
      "sĠinĠaĠ": 5985,
      "himĠtoĠ": 5986,
      "himselfĠ": 5987,
      "pointsĠ": 5988,
      "sexĠ": 5989,
      ".||": 5990,
      "Lab": 5991,
      "bath": 5992,
      "fillĠ": 5993,
      ",ĠisĠ": 5994,
      "erĠorĠ": 5995,
      "ed.Ġ": 5996,
      "lean": 5997,
      "imens": 5998,
      "quir": 5999,
      "blu": 6000,
      "aftern": 6001,
      "dram": 6002,
      "noĠlongerĠ": 6003,
      "exception": 6004,
      "lookĠatĠ": 6005,
      "StreetĠ": 6006,
      ".A": 6007,
      "SheĠ": 6008,
      "fatherĠ": 6009,
      "ĠF": 6010,
      "ĠtaxĠ": 6011,
      "edĠmyĠ": 6012,
      "elast": 6013,
      "ed,ĠtheĠ": 6014,
      "spend": 6015,
      "ferenc": 6016,
      "Under": 6017,
      "Mark": 6018,
      "seriousĠ": 6019,
      "lastĠyear": 6020,
      "IâĢĻdĠ": 6021,
      "DepartmentĠofĠ": 6022,
      "avoid": 6023,
      "fortunat": 6024,
      "dollar": 6025,
      "Jud": 6026,
      "fishĠ": 6027,
      "gold": 6028,
      "gather": 6029,
      "infl": 6030,
      "enth": 6031,
      "aloneĠ": 6032,
      ".ĊHeĠ": 6033,
      "liqu": 6034,
      "ifĠitĠ": 6035,
      "guyĠ": 6036,
      "ement,Ġ": 6037,
      "nowledg": 6038,
      "wrongĠ": 6039,
      "laugh": 6040,
      "paymentĠ": 6041,
      "decisionĠ": 6042,
      "winningĠ": 6043,
      "doubleĠ": 6044,
      "professional": 6045,
      "TexasĠ": 6046,
      "incorpor": 6047,
      "jump": 6048,
      "pitch": 6049,
      "er,ĠandĠ": 6050,
      "whomĠ": 6051,
      "convent": 6052,
      "withĠmyĠ": 6053,
      "intent": 6054,
      "Academ": 6055,
      "famili": 6056,
      "ManagementĠ": 6057,
      "villeĠ": 6058,
      "):Ġ": 6059,
      "47": 6060,
      "Tri": 6061,
      "hes": 6062,
      "ene": 6063,
      "e,ĠorĠ": 6064,
      "hetherĠ": 6065,
      "here.Ġ": 6066,
      ".ĠIĠwasĠ": 6067,
      "soon": 6068,
      "MondayĠ": 6069,
      "https": 6070,
      "motiv": 6071,
      "difficultĠ": 6072,
      "languageĠ": 6073,
      "CommunityĠ": 6074,
      "separateĠ": 6075,
      "AF": 6076,
      "Gold": 6077,
      "ait": 6078,
      "itiv": 6079,
      "aĠL": 6080,
      "ament": 6081,
      "IĠloveĠ": 6082,
      "shoo": 6083,
      "quant": 6084,
      "pray": 6085,
      "MarkĠ": 6086,
      "reduceĠ": 6087,
      "CB": 6088,
      "Econ": 6089,
      "poll": 6090,
      "inkingĠ": 6091,
      "ĠtoĠdoĠ": 6092,
      "isonĠ": 6093,
      "being": 6094,
      "gradeĠ": 6095,
      "remind": 6096,
      ".ĠIĠamĠ": 6097,
      "statementĠ": 6098,
      ".ĠWhileĠ": 6099,
      "trans": 6100,
      "oneĠofĠtheĠmostĠ": 6101,
      "obtain": 6102,
      "constructionĠ": 6103,
      "Hop": 6104,
      "HereĠ": 6105,
      "aid": 6106,
      "luck": 6107,
      "abet": 6108,
      "forĠhisĠ": 6109,
      "and-": 6110,
      "resident": 6111,
      "uct": 6112,
      "artist": 6113,
      "ney": 6114,
      "includedĠ": 6115,
      "surfaceĠ": 6116,
      "providedĠ": 6117,
      "ypeĠ": 6118,
      "cashĠ": 6119,
      "idealĠ": 6120,
      "operatingĠ": 6121,
      "Libr": 6122,
      "https://": 6123,
      "coĠ": 6124,
      "eanĠ": 6125,
      "i.": 6126,
      ".Ġ.Ġ": 6127,
      "eck": 6128,
      "umentsĠ": 6129,
      "blood": 6130,
      "AnotherĠ": 6131,
      "ifĠIĠ": 6132,
      "centur": 6133,
      "lovedĠ": 6134,
      "circum": 6135,
      "However,Ġ": 6136,
      "church": 6137,
      "demonstr": 6138,
      "MP": 6139,
      "]Ċ": 6140,
      "Â»": 6141,
      "amongĠtheĠ": 6142,
      "forĠourĠ": 6143,
      "riveĠ": 6144,
      "soĠIĠ": 6145,
      "attach": 6146,
      "smart": 6147,
      "expand": 6148,
      "recommendĠ": 6149,
      "Regist": 6150,
      "voiceĠ": 6151,
      "batter": 6152,
      ".C": 6153,
      "ALĠ": 6154,
      "Dig": 6155,
      "dent": 6156,
      ",ĠA": 6157,
      "ingĠoutĠ": 6158,
      "Chi": 6159,
      "drink": 6160,
      "okeĠ": 6161,
      "I'llĠ": 6162,
      "&ĠS": 6163,
      "element": 6164,
      "unitĠ": 6165,
      "withĠourĠ": 6166,
      ")Ġ-Ġ": 6167,
      "iaĠandĠ": 6168,
      "however": 6169,
      "Organ": 6170,
      "clearlyĠ": 6171,
      "campaignĠ": 6172,
      "ET": 6173,
      "Kore": 6174,
      "danc": 6175,
      "ibl": 6176,
      "ricalĠ": 6177,
      "wallĠ": 6178,
      "ĠthatĠwasĠ": 6179,
      "resolut": 6180,
      "youĠshouldĠ": 6181,
      "rianĠ": 6182,
      "butĠIĠ": 6183,
      "finishĠ": 6184,
      "mayĠnotĠ": 6185,
      "friendsĠ": 6186,
      ",ĠwhichĠisĠ": 6187,
      "Lead": 6188,
      "waitĠ": 6189,
      "characterĠ": 6190,
      "Ref": 6191,
      "aĠtoĠ": 6192,
      "coolĠ": 6193,
      "ires": 6194,
      "lotĠ": 6195,
      "oust": 6196,
      "accommod": 6197,
      "inĠH": 6198,
      "haveĠanĠ": 6199,
      "iesĠareĠ": 6200,
      "surfac": 6201,
      "region": 6202,
      "stuffĠ": 6203,
      "meetingĠ": 6204,
      "oubleĠ": 6205,
      "whileĠtheĠ": 6206,
      "Award": 6207,
      "Ry": 6208,
      "School": 6209,
      "bear": 6210,
      "eastĠ": 6211,
      "hood": 6212,
      "natureĠ": 6213,
      "sand": 6214,
      "usĠandĠ": 6215,
      "least": 6216,
      "oop": 6217,
      "doĠtheĠ": 6218,
      "appearĠ": 6219,
      "requiredĠtoĠ": 6220,
      "Contin": 6221,
      "AboutĠ": 6222,
      "vehicleĠ": 6223,
      "habit": 6224,
      "UKĠ": 6225,
      "kick": 6226,
      "wo-": 6227,
      "usualĠ": 6228,
      "ationĊ": 6229,
      "ago,Ġ": 6230,
      "uteĠ": 6231,
      "haveĠth": 6232,
      "grant": 6233,
      "scal": 6234,
      "addressĠ": 6235,
      "datab": 6236,
      "movingĠ": 6237,
      "settingĠ": 6238,
      "lymp": 6239,
      "DV": 6240,
      "PCĠ": 6241,
      "Rich": 6242,
      "barĠ": 6243,
      "brainĠ": 6244,
      "cupĠ": 6245,
      "eah": 6246,
      "ofĊ": 6247,
      "beĠableĠtoĠ": 6248,
      "ĠtrulyĠ": 6249,
      "ypt": 6250,
      "features": 6251,
      "catch": 6252,
      "CenterĠ": 6253,
      "resultsĠ": 6254,
      "referenc": 6255,
      "aspect": 6256,
      "Econom": 6257,
      "Jef": 6258,
      "MO": 6259,
      "Mexic": 6260,
      "auc": 6261,
      "festiv": 6262,
      "listĠofĠ": 6263,
      "ndĠ": 6264,
      "pmĠ": 6265,
      "pound": 6266,
      "soldĠ": 6267,
      "blockĠ": 6268,
      "outĠtoĠ": 6269,
      "heĠhasĠ": 6270,
      "complexĠ": 6271,
      "WhoĠ": 6272,
      "Ġtrail": 6273,
      ".ĊSoĠ": 6274,
      "family": 6275,
      "imagin": 6276,
      "accordingĠtoĠtheĠ": 6277,
      "knownĠasĠ": 6278,
      "conductiveĠ": 6279,
      "encourag": 6280,
      "ThomasĠ": 6281,
      "hundred": 6282,
      "Childr": 6283,
      "AirĠ": 6284,
      "Feb": 6285,
      "GO": 6286,
      "cellĠ": 6287,
      "gott": 6288,
      "stoneĠ": 6289,
      "icsĠandĠ": 6290,
      "agon": 6291,
      ":Ġ\"": 6292,
      "ĠtakeĠtheĠ": 6293,
      "coach": 6294,
      "Comput": 6295,
      "capitalĠ": 6296,
      "dependingĠ": 6297,
      "birth": 6298,
      "26Ġ": 6299,
      "35Ġ": 6300,
      "9-": 6301,
      "sĠtheyĠ": 6302,
      "ones": 6303,
      ",ĠforĠ": 6304,
      "stanc": 6305,
      "more,Ġ": 6306,
      "Invest": 6307,
      "Ste": 6308,
      "Cho": 6309,
      "loanĠ": 6310,
      "eyesĠ": 6311,
      "GreenĠ": 6312,
      "Virgin": 6313,
      ".)Ċ": 6314,
      "HA": 6315,
      "spl": 6316,
      "wav": 6317,
      "ĠP": 6318,
      "yĠforĠ": 6319,
      "alog": 6320,
      "itchĠ": 6321,
      "chick": 6322,
      "earth": 6323,
      "ersĠofĠtheĠ": 6324,
      "e.ĠHeĠ": 6325,
      "byĠaĠ": 6326,
      "moreĠinformationĠ": 6327,
      "aĠlongĠ": 6328,
      "defend": 6329,
      "e.g": 6330,
      "ĠtypesĠofĠ": 6331,
      "Ġtwo": 6332,
      "famousĠ": 6333,
      "80Ġ": 6334,
      "WarĠ": 6335,
      "yard": 6336,
      "Ġthen": 6337,
      ",ĠsheĠ": 6338,
      "chap": 6339,
      "eĠthing": 6340,
      "lieĠ": 6341,
      "helpingĠ": 6342,
      "Black": 6343,
      "peopleĠtoĠ": 6344,
      "EvenĠ": 6345,
      "restĠofĠtheĠ": 6346,
      "ainĠtheĠ": 6347,
      "big": 6348,
      "e:Ċ": 6349,
      "poolĠ": 6350,
      "ĠtalkĠ": 6351,
      "ational": 6352,
      ".ĠIâĢĻ": 6353,
      "here.Ċ": 6354,
      "decor": 6355,
      "cleanĠ": 6356,
      "methodĠ": 6357,
      "substant": 6358,
      "IB": 6359,
      "Rock": 6360,
      "Som": 6361,
      "fightĠ": 6362,
      "gasĠ": 6363,
      "iP": 6364,
      "Â©": 6365,
      "concent": 6366,
      "youĠneedĠtoĠ": 6367,
      "parkĠ": 6368,
      "feetĠ": 6369,
      "placeĠtoĠ": 6370,
      "I'dĠ": 6371,
      "either": 6372,
      "beautiful": 6373,
      "straightĠ": 6374,
      "Colorad": 6375,
      "cord": 6376,
      "ley": 6377,
      "interĠ": 6378,
      "seatĠ": 6379,
      "spotĠ": 6380,
      "2000": 6381,
      "blueĠ": 6382,
      "such": 6383,
      "thĠofĠ": 6384,
      "assum": 6385,
      "OnĠtheĠ": 6386,
      "arianĠ": 6387,
      "factĠthatĠ": 6388,
      "exampl": 6389,
      "iciousĠ": 6390,
      "Mont": 6391,
      ".ĠEv": 6392,
      "CentralĠ": 6393,
      "north": 6394,
      "complic": 6395,
      "magaz": 6396,
      "alternativeĠ": 6397,
      "plentyĠofĠ": 6398,
      "CC": 6399,
      "hang": 6400,
      "iĠandĠ": 6401,
      "songĠ": 6402,
      "Ġtast": 6403,
      "sĠaboutĠ": 6404,
      "orsĠandĠ": 6405,
      "you,Ġ": 6406,
      "entire": 6407,
      "ĠthatĠwillĠ": 6408,
      "ifyingĠ": 6409,
      "dieĠ": 6410,
      "ellow": 6411,
      "aĠsign": 6412,
      "secret": 6413,
      "poly": 6414,
      "distinc": 6415,
      "connectionĠ": 6416,
      "sellingĠ": 6417,
      "intellig": 6418,
      "fib": 6419,
      "yĠ(": 6420,
      "asĠheĠ": 6421,
      "youĠtheĠ": 6422,
      "sportĠ": 6423,
      "Star": 6424,
      "brac": 6425,
      "parkingĠ": 6426,
      "ibilityĠ": 6427,
      "evenĠmoreĠ": 6428,
      "Enter": 6429,
      "appli": 6430,
      "academicĠ": 6431,
      "switch": 6432,
      "approximatelyĠ": 6433,
      "YOU": 6434,
      "e\"Ġ": 6435,
      "father": 6436,
      "inalĠ": 6437,
      "atĠall": 6438,
      "why": 6439,
      "predict": 6440,
      "life.Ġ": 6441,
      "OnceĠ": 6442,
      "name.": 6443,
      "mainten": 6444,
      "hotel": 6445,
      "CourtĠ": 6446,
      "graduateĠ": 6447,
      "Ben": 6448,
      "Chap": 6449,
      "Pot": 6450,
      "ey,Ġ": 6451,
      "sitĠ": 6452,
      "Ġtend": 6453,
      "edit": 6454,
      "forĠmyĠ": 6455,
      "raiseĠ": 6456,
      "commiss": 6457,
      "echnicalĠ": 6458,
      "firstĠtimeĠ": 6459,
      "LeagueĠ": 6460,
      "Andre": 6461,
      "basedĠonĠtheĠ": 6462,
      "rockĠ": 6463,
      "memoryĠ": 6464,
      "comfortableĠ": 6465,
      "chanceĠtoĠ": 6466,
      "ChrisĠ": 6467,
      "numerousĠ": 6468,
      "65": 6469,
      "Book": 6470,
      "If": 6471,
      "Mad": 6472,
      "Vict": 6473,
      "customĠ": 6474,
      "gall": 6475,
      ",ĠG": 6476,
      "ations.Ċ": 6477,
      "ĠtrackĠ": 6478,
      "button": 6479,
      "backĠtoĠtheĠ": 6480,
      "began": 6481,
      "osĠAngel": 6482,
      "opportunitiesĠ": 6483,
      "sortĠofĠ": 6484,
      "measure": 6485,
      "Ġtouch": 6486,
      "restric": 6487,
      "ingĠherĠ": 6488,
      "elimin": 6489,
      "constitut": 6490,
      "updateĠ": 6491,
      "ourselv": 6492,
      "final": 6493,
      "Form": 6494,
      "speakĠ": 6495,
      "formĠofĠ": 6496,
      "initialĠ": 6497,
      "willingĠtoĠ": 6498,
      "street": 6499,
      "packag": 6500,
      "2,": 6501,
      ":00": 6502,
      "Ber": 6503,
      "Pric": 6504,
      "inĠitsĠ": 6505,
      "IĠdonâĢĻtĠ": 6506,
      "appĠ": 6507,
      "complex": 6508,
      ".ĠAnĠ": 6509,
      "e.ĊâĢľ": 6510,
      "waysĠtoĠ": 6511,
      "HowĠtoĠ": 6512,
      "RobertĠ": 6513,
      "SocialĠ": 6514,
      "SA": 6515,
      "lerĠ": 6516,
      "Â°": 6517,
      "oneĠthatĠ": 6518,
      "phil": 6519,
      "scar": 6520,
      "smil": 6521,
      ",Ġ2012)Ġ": 6522,
      "popular": 6523,
      "paper": 6524,
      "ĠtravelĠ": 6525,
      "Design": 6526,
      "dynam": 6527,
      "95": 6528,
      "?Ċ-Ġ": 6529,
      "GoodĠ": 6530,
      "Ok": 6531,
      "PMĠ": 6532,
      "craft": 6533,
      "fold": 6534,
      "nomin": 6535,
      "aĠT": 6536,
      "s.ĠInĠ": 6537,
      "wayĠofĠ": 6538,
      "exampleĠ": 6539,
      "openingĠ": 6540,
      "chargeĠ": 6541,
      ".ĠJustĠ": 6542,
      ")ĠtoĠ": 6543,
      "Haw": 6544,
      "wonĠ": 6545,
      "inyĠ": 6546,
      "inĠterm": 6547,
      "es.ĊTheĠ": 6548,
      "itĠis": 6549,
      "youĠandĠ": 6550,
      "obileĠ": 6551,
      "2008": 6552,
      "son,Ġ": 6553,
      "sayingĠ": 6554,
      "aboutĠthisĠ": 6555,
      "knowsĠ": 6556,
      "Brid": 6557,
      "eventuallyĠ": 6558,
      "individualsĠ": 6559,
      "100%Ġ": 6560,
      "wheel": 6561,
      "MA": 6562,
      "OldĠ": 6563,
      "cart": 6564,
      "eumĠ": 6565,
      "gent": 6566,
      "weĠt": 6567,
      "ĊW": 6568,
      "ondon": 6569,
      "ouĠ": 6570,
      ".ĠandĠ": 6571,
      "stret": 6572,
      "escap": 6573,
      "omor": 6574,
      "confl": 6575,
      "deadĠ": 6576,
      "highlight": 6577,
      "Monday": 6578,
      "firstname.": 6579,
      "OneĠofĠtheĠ": 6580,
      "lastname": 6581,
      "brows": 6582,
      "doctorĠ": 6583,
      "@example.org": 6584,
      "behindĠtheĠ": 6585,
      "MicrosoftĠ": 6586,
      "firstname.lastname": 6587,
      "firstname.lastname@example.org": 6588,
      "'mĠ": 6589,
      "OrĠ": 6590,
      "mig": 6591,
      "up,Ġ": 6592,
      "spar": 6593,
      "outĠandĠ": 6594,
      "Stand": 6595,
      "anyth": 6596,
      "guideĠ": 6597,
      "rightĠnow": 6598,
      "sexualĠ": 6599,
      ".ĠHowever": 6600,
      "31": 6601,
      ":5": 6602,
      "Lif": 6603,
      "map": 6604,
      "incom": 6605,
      "ery": 6606,
      "aly": 6607,
      "âĢ²": 6608,
      "estateĠ": 6609,
      "2012": 6610,
      "erefor": 6611,
      "Proc": 6612,
      "publishedĠ": 6613,
      "exceptĠ": 6614,
      "additionĠtoĠ": 6615,
      "ContactĠ": 6616,
      "TuesdayĠ": 6617,
      "slightlyĠ": 6618,
      "Bob": 6619,
      "han": 6620,
      "main": 6621,
      "mother": 6622,
      "nâĢĻt": 6623,
      "s?Ċ": 6624,
      "vacc": 6625,
      "ariesĠ": 6626,
      "eli": 6627,
      "isedĠ": 6628,
      "olveĠ": 6629,
      "loy": 6630,
      "coordin": 6631,
      "2007": 6632,
      "ertainĠ": 6633,
      "approachĠ": 6634,
      "Ġtransform": 6635,
      "direction": 6636,
      "couldnâĢĻtĠ": 6637,
      "quarter": 6638,
      "principl": 6639,
      "restaurant": 6640,
      "maximumĠ": 6641,
      "Cas": 6642,
      "IIĠ": 6643,
      "Sil": 6644,
      "a.Ċ": 6645,
      "brain": 6646,
      "inĠT": 6647,
      "leas": 6648,
      "andĠthisĠ": 6649,
      "knew": 6650,
      "hereĠtoĠ": 6651,
      "ĠtimeĠandĠ": 6652,
      "scienc": 6653,
      "neededĠ": 6654,
      "neededĠtoĠ": 6655,
      "movementĠ": 6656,
      "iddenĠ": 6657,
      "industry": 6658,
      "PoliceĠ": 6659,
      "email@example": 6660,
      "possibleĠtoĠ": 6661,
      "Hill": 6662,
      "PL": 6663,
      "pock": 6664,
      "Â·": 6665,
      "er:Ġ": 6666,
      "eningĠ": 6667,
      "oulĠ": 6668,
      "really": 6669,
      "esĠasĠ": 6670,
      "leagu": 6671,
      "frag": 6672,
      "withĠherĠ": 6673,
      "ĠtrueĠ": 6674,
      "readĠtheĠ": 6675,
      "extr": 6676,
      "guy": 6677,
      "seemsĠ": 6678,
      "offeringĠ": 6679,
      "wordsĠ": 6680,
      "ChineseĠ": 6681,
      "minimumĠ": 6682,
      "-year-oldĠ": 6683,
      "Ow": 6684,
      "boughtĠ": 6685,
      "enz": 6686,
      "esĠonĠtheĠ": 6687,
      "edĠthroughĠ": 6688,
      "uneĠ": 6689,
      "occup": 6690,
      "clubĠ": 6691,
      "weap": 6692,
      "SteveĠ": 6693,
      "relativelyĠ": 6694,
      "backĠandĠ": 6695,
      "factor": 6696,
      "weekendĠ": 6697,
      "requiresĠ": 6698,
      "possiblyĠ": 6699,
      "setĠupĠ": 6700,
      "competitiveĠ": 6701,
      "pieceĠ": 6702,
      "importantĠtoĠ": 6703,
      ",Ġ2012)Ġ-Ġ": 6704,
      "3/": 6705,
      "ERĠ": 6706,
      "bird": 6707,
      "rand": 6708,
      "zenĠ": 6709,
      "ense": 6710,
      "forĠanyĠ": 6711,
      "e,ĠIĠ": 6712,
      "mostĠofĠtheĠ": 6713,
      "10.": 6714,
      "proceed": 6715,
      "ician": 6716,
      "people,Ġ": 6717,
      "shippingĠ": 6718,
      "BillĠ": 6719,
      "Let": 6720,
      "matt": 6721,
      "ÑĢ": 6722,
      "ings.Ġ": 6723,
      "aĠP": 6724,
      "es.Ċ-Ġ": 6725,
      "all-": 6726,
      "eptionĠ": 6727,
      "ĠtradeĠ": 6728,
      "ĠtheyĠwereĠ": 6729,
      "ignor": 6730,
      "said.Ġ\"": 6731,
      "somethingĠthatĠ": 6732,
      "yearsĠago": 6733,
      "determineĠ": 6734,
      "weddingĠ": 6735,
      "Dan": 6736,
      "LakeĠ": 6737,
      "infra": 6738,
      "ersĊ": 6739,
      "emphas": 6740,
      "chain": 6741,
      "ation:Ġ": 6742,
      "ersĠinĠtheĠ": 6743,
      "ĠthisĠyear": 6744,
      "linesĠ": 6745,
      "presentsĠ": 6746,
      "Ant": 6747,
      "peopleĠareĠ": 6748,
      "lockĠ": 6749,
      "expectĠ": 6750,
      "crim": 6751,
      "protectionĠ": 6752,
      "radi": 6753,
      "Friday": 6754,
      "architect": 6755,
      "elastom": 6756,
      "29Ġ": 6757,
      "31Ġ": 6758,
      "jew": 6759,
      "sĠto": 6760,
      "ino": 6761,
      "one.Ċ": 6762,
      "ating": 6763,
      ".ĊWhenĠ": 6764,
      "eĠthrough": 6765,
      "aperĠ": 6766,
      "perman": 6767,
      "whoĠhaveĠ": 6768,
      "whoĠhasĠ": 6769,
      "engineĠ": 6770,
      "frontĠofĠ": 6771,
      "honor": 6772,
      "coupl": 6773,
      "70Ġ": 6774,
      "9/": 6775,
      "Mov": 6776,
      "PR": 6777,
      "Spe": 6778,
      "TopĠ": 6779,
      "lement": 6780,
      "IĠdon'tĠ": 6781,
      "ayl": 6782,
      "selectĠ": 6783,
      "green": 6784,
      "aĠbetterĠ": 6785,
      "said,Ġ": 6786,
      "knowĠtheĠ": 6787,
      "JoeĠ": 6788,
      ".âĢĿĊTheĠ": 6789,
      "greatestĠ": 6790,
      "windowĠ": 6791,
      "Program": 6792,
      "iPhoneĠ": 6793,
      "(Ġ": 6794,
      "90Ġ": 6795,
      "ban": 6796,
      "eu": 6797,
      "enforc": 6798,
      "alg": 6799,
      "ilt": 6800,
      ".ĊYouĠ": 6801,
      "illustr": 6802,
      "What": 6803,
      "declar": 6804,
      "factĠ": 6805,
      "lawy": 6806,
      "effectiv": 6807,
      "hasĠtoĠ": 6808,
      "ĠtypeĠofĠ": 6809,
      "machineĠ": 6810,
      "Funn": 6811,
      "Ter": 6812,
      "dos": 6813,
      "pep": 6814,
      "sĠthatĠtheĠ": 6815,
      "wineĠ": 6816,
      "instr": 6817,
      "ing-": 6818,
      "reatĠ": 6819,
      "of-": 6820,
      "erĠinĠtheĠ": 6821,
      "isĠnowĠ": 6822,
      "eĠthingsĠ": 6823,
      "devicesĠ": 6824,
      "becauseĠitĠ": 6825,
      ".âĢĿĊâĢľ": 6826,
      "needĠtoĠbeĠ": 6827,
      "priz": 6828,
      "religiousĠ": 6829,
      "BayĠ": 6830,
      "ManyĠ": 6831,
      "Olymp": 6832,
      "Sha": 6833,
      "Sand": 6834,
      "TOĠ": 6835,
      "Ut": 6836,
      "aidĠ": 6837,
      "fif": 6838,
      "mos": 6839,
      "nav": 6840,
      "ranĠ": 6841,
      "zer": 6842,
      "Ñģ": 6843,
      "orn": 6844,
      "ampĠ": 6845,
      "forĠallĠ": 6846,
      "eĠthenĠ": 6847,
      "entĠofĠ": 6848,
      "evidenceĠ": 6849,
      "edĠtoĠaĠ": 6850,
      "differenc": 6851,
      "skin": 6852,
      "ifĠyouĠareĠ": 6853,
      "activityĠ": 6854,
      "ĠtermĠ": 6855,
      "benefitsĠ": 6856,
      "fullĠofĠ": 6857,
      "Â®Ġ": 6858,
      "CouncilĠ": 6859,
      "Cop": 6860,
      "Vi": 6861,
      "eatingĠ": 6862,
      "erĠtheĠ": 6863,
      "atter": 6864,
      "retĠ": 6865,
      "icon": 6866,
      "ingĠourĠ": 6867,
      "isĠstillĠ": 6868,
      "commentsĠ": 6869,
      "consequ": 6870,
      "umbl": 6871,
      "2017": 6872,
      "whenĠweĠ": 6873,
      "partnerĠ": 6874,
      "ItĠwasĠ": 6875,
      "rossĠ": 6876,
      "Administ": 6877,
      "advoc": 6878,
      "300Ġ": 6879,
      "University": 6880,
      "Green": 6881,
      "Polic": 6882,
      "negativeĠ": 6883,
      "sponsor": 6884,
      "eesĠ": 6885,
      "ft": 6886,
      "les,Ġ": 6887,
      "obl": 6888,
      "inj": 6889,
      ".ĠYou": 6890,
      "ingĠ(": 6891,
      "ionsĠandĠ": 6892,
      "iringĠ": 6893,
      "ersĠhaveĠ": 6894,
      "we'reĠ": 6895,
      "ance.Ġ": 6896,
      "Chang": 6897,
      "format": 6898,
      "moreĠaboutĠ": 6899,
      "possess": 6900,
      "playedĠ": 6901,
      "OnlineĠ": 6902,
      "centerĠ": 6903,
      "rich": 6904,
      "BlueĠ": 6905,
      "Road": 6906,
      "createĠaĠ": 6907,
      "forwardĠtoĠ": 6908,
      "cross": 6909,
      "88": 6910,
      "HaveĠ": 6911,
      "caughtĠ": 6912,
      "rar": 6913,
      "ina": 6914,
      "anx": 6915,
      ".ĊAndĠ": 6916,
      "chocol": 6917,
      "shock": 6918,
      "Ġtrust": 6919,
      "attleĠ": 6920,
      "muchĠmoreĠ": 6921,
      "seemĠ": 6922,
      "classicĠ": 6923,
      "teamĠ": 6924,
      "independ": 6925,
      "legisl": 6926,
      "NF": 6927,
      "cott": 6928,
      "lackĠofĠ": 6929,
      "n't": 6930,
      "reput": 6931,
      "stim": 6932,
      "isĠandĠ": 6933,
      "ed-": 6934,
      "olicĠ": 6935,
      "youĠknowĠ": 6936,
      "ersĠwereĠ": 6937,
      "ter,Ġ": 6938,
      "ternĠ": 6939,
      "whichĠareĠ": 6940,
      "2010Ġ": 6941,
      "2011Ġ": 6942,
      "noĠoneĠ": 6943,
      "happenĠ": 6944,
      "something": 6945,
      "OfficeĠ": 6946,
      "straight": 6947,
      ".ĠIâĢĻmĠ": 6948,
      ":||": 6949,
      "GoĠ": 6950,
      "Holl": 6951,
      "mmĠ": 6952,
      "rentalĠ": 6953,
      "aĠd": 6954,
      "where": 6955,
      "commentĠ": 6956,
      "ĠthatĠweĠ": 6957,
      "riz": 6958,
      "rast": 6959,
      "bodi": 6960,
      "storiesĠ": 6961,
      "casesĠ": 6962,
      "rightĠtoĠ": 6963,
      "reatmentĠ": 6964,
      "findĠoutĠ": 6965,
      "sideĠofĠtheĠ": 6966,
      "ANĠ": 6967,
      "educationalĠ": 6968,
      "connection": 6969,
      "sensitiveĠ": 6970,
      "pieceĠofĠ": 6971,
      "knowledgeĠ": 6972,
      "InformationĠ": 6973,
      "foreignĠ": 6974,
      ")|Ċ|": 6975,
      "Are": 6976,
      "EC": 6977,
      "e!": 6978,
      "ii": 6979,
      "norĠ": 6980,
      "Ġton": 6981,
      ",ĠyouĠcanĠ": 6982,
      "electionĠ": 6983,
      "usedĠforĠ": 6984,
      "s.ĠHeĠ": 6985,
      "acknowledg": 6986,
      "dish": 6987,
      "pregn": 6988,
      "fundĠ": 6989,
      "milesĠ": 6990,
      "streetĠ": 6991,
      "environmentĠ": 6992,
      "beyond": 6993,
      "AG": 6994,
      "MSĠ": 6995,
      "WillĠ": 6996,
      "harm": 6997,
      "vit": 6998,
      "sĠ&Ġ": 6999,
      "enem": 7000,
      "acĠ": 7001,
      "asyĠ": 7002,
      "whol": 7003,
      "ionĠisĠ": 7004,
      "essayĠ": 7005,
      "bringsĠ": 7006,
      ".ĠSom": 7007,
      "ouseĠ": 7008,
      "ArtĠ": 7009,
      "ternalĠ": 7010,
      "landscap": 7011,
      "internalĠ": 7012,
      "Andro": 7013,
      "summ": 7014,
      "circumstanc": 7015,
      ",ĠtheseĠ": 7016,
      "EV": 7017,
      "IfĠtheĠ": 7018,
      "ially": 7019,
      "masterĠ": 7020,
      "rab": 7021,
      "y,ĠtheĠ": 7022,
      ".ĊAl": 7023,
      "inĠ19": 7024,
      "orĠotherĠ": 7025,
      "comb": 7026,
      "inĠtheĠt": 7027,
      "ivesĠ": 7028,
      "recru": 7029,
      "going": 7030,
      "ables": 7031,
      "Ġthey'reĠ": 7032,
      "animalĠ": 7033,
      "Financ": 7034,
      "JesusĠ": 7035,
      "-5": 7036,
      "Gal": 7037,
      "Sun": 7038,
      "Saf": 7039,
      "e,âĢĿĠ": 7040,
      "lapt": 7041,
      "ubeĠ": 7042,
      "veter": 7043,
      "walkingĠ": 7044,
      "eraĠ": 7045,
      "Ġthreat": 7046,
      "reward": 7047,
      "ingĠmyĠ": 7048,
      "s,ĠincludingĠ": 7049,
      "upgrad": 7050,
      "sauc": 7051,
      "cream": 7052,
      "Whit": 7053,
      "interpret": 7054,
      "storageĠ": 7055,
      "e.\"Ċ": 7056,
      "profil": 7057,
      "otherwiseĠ": 7058,
      "warmĠ": 7059,
      "expectedĠtoĠ": 7060,
      "MedicalĠ": 7061,
      "wouldnâĢĻtĠ": 7062,
      "PeopleĠ": 7063,
      "SaturdayĠ": 7064,
      "-3": 7065,
      "Doc": 7066,
      "East": 7067,
      "MakeĠ": 7068,
      "ViewĠ": 7069,
      "Way": 7070,
      "bik": 7071,
      "ĠAĠ": 7072,
      "ĠtechnologyĠ": 7073,
      "anth": 7074,
      "ĠthousandsĠofĠ": 7075,
      "aryĠtoĠ": 7076,
      "restor": 7077,
      "aĠF": 7078,
      "edĠitsĠ": 7079,
      "ureĠtoĠ": 7080,
      "eĠthis": 7081,
      "railĠ": 7082,
      "ive-": 7083,
      "moreĠthan": 7084,
      "izz": 7085,
      ".ĠThenĠ": 7086,
      "s.ĊâĢľ": 7087,
      "ittl": 7088,
      "lett": 7089,
      "wantsĠtoĠ": 7090,
      ".ĠMostĠ": 7091,
      "growth": 7092,
      "Spir": 7093,
      "whereĠtheyĠ": 7094,
      "willĠtakeĠ": 7095,
      "CompanyĠ": 7096,
      "audioĠ": 7097,
      "messageĠ": 7098,
      "previouslyĠ": 7099,
      "attention": 7100,
      "PeterĠ": 7101,
      "??": 7102,
      "inchĠ": 7103,
      "ingsĠofĠ": 7104,
      ".ĊToĠ": 7105,
      "inĠC": 7106,
      "inĠherĠ": 7107,
      "beatĠ": 7108,
      "affil": 7109,
      "here,Ġ": 7110,
      "whatĠweĠ": 7111,
      "addingĠ": 7112,
      "remeĠ": 7113,
      "workĠwithĠ": 7114,
      "echniqu": 7115,
      "RealĠ": 7116,
      "idea": 7117,
      "connectĠ": 7118,
      "credit": 7119,
      "pictureĠ": 7120,
      "GlobalĠ": 7121,
      "wroteĠ": 7122,
      "TwoĠ": 7123,
      "fansĠ": 7124,
      "giftĠ": 7125,
      "ribeĠ": 7126,
      "es,ĠbutĠ": 7127,
      "Ġtime.Ċ": 7128,
      "ing,ĠbutĠ": 7129,
      "beginĠ": 7130,
      "aĠhugeĠ": 7131,
      ".ĠEachĠ": 7132,
      "detailedĠ": 7133,
      "clientĠ": 7134,
      "advancedĠ": 7135,
      "furnit": 7136,
      "?âĢĿĊ": 7137,
      "CR": 7138,
      "sâĢĿĠ": 7139,
      "y:Ġ": 7140,
      "arrest": 7141,
      "ing.": 7142,
      "forĠthatĠ": 7143,
      "clas": 7144,
      "ersĠfromĠ": 7145,
      "Strat": 7146,
      "assistĠ": 7147,
      "WhereĠ": 7148,
      "Environ": 7149,
      "expans": 7150,
      "movi": 7151,
      "Execut": 7152,
      "PressĠ": 7153,
      "Report": 7154,
      "mediateĠ": 7155,
      "Facebook": 7156,
      "faith": 7157,
      "(M": 7158,
      "Oper": 7159,
      "PSĠ": 7160,
      "TimeĠ": 7161,
      "east": 7162,
      "sĠfromĠtheĠ": 7163,
      "orient": 7164,
      "askingĠ": 7165,
      "oward": 7166,
      "mentĠtoĠ": 7167,
      "awaren": 7168,
      "rativeĠ": 7169,
      "bothĠtheĠ": 7170,
      "between": 7171,
      "America": 7172,
      ".ĠHeĠwasĠ": 7173,
      "giveĠyouĠ": 7174,
      "wereĠt": 7175,
      "Secur": 7176,
      "situation": 7177,
      "floor": 7178,
      "suffici": 7179,
      "YearĠ": 7180,
      "dimens": 7181,
      "netĠ": 7182,
      "ray": 7183,
      "forest": 7184,
      "usi": 7185,
      "shor": 7186,
      "performĠ": 7187,
      "e.ĠInĠ": 7188,
      "terĠtheĠ": 7189,
      "2015": 7190,
      "whoĠwasĠ": 7191,
      "lost": 7192,
      "basisĠ": 7193,
      "subjectĠ": 7194,
      "developingĠ": 7195,
      "continuesĠtoĠ": 7196,
      "answerĠ": 7197,
      "Brown": 7198,
      "Den": 7199,
      "loseĠ": 7200,
      "ran": 7201,
      "ĠtalkingĠ": 7202,
      "aĠK": 7203,
      "elessĠ": 7204,
      "entryĠ": 7205,
      "usefulĠ": 7206,
      "lipĠ": 7207,
      "Ext": 7208,
      "minuteĠ": 7209,
      "competitionĠ": 7210,
      "honest": 7211,
      "sportsĠ": 7212,
      "floorĠ": 7213,
      "budgetĠ": 7214,
      "executiveĠ": 7215,
      "75Ġ": 7216,
      "Cath": 7217,
      "Duck": 7218,
      "IF": 7219,
      "ras": 7220,
      "ĊTh": 7221,
      "edĠ(": 7222,
      ".ĊIn": 7223,
      "used": 7224,
      "e,ĠaĠ": 7225,
      "udden": 7226,
      "atedĠandĠ": 7227,
      "2019": 7228,
      "statusĠ": 7229,
      "American": 7230,
      "World": 7231,
      "Week": 7232,
      "Build": 7233,
      "critic": 7234,
      "SundayĠ": 7235,
      "Pur": 7236,
      "iouslyĠ": 7237,
      "sort": 7238,
      "section": 7239,
      "wifeĠ": 7240,
      "Ġtemper": 7241,
      "esid": 7242,
      "edyĠ": 7243,
      "urt": 7244,
      "other,Ġ": 7245,
      "disappoint": 7246,
      "smok": 7247,
      "IfĠyouĠareĠ": 7248,
      "AmericaĠ": 7249,
      "photos": 7250,
      "electric": 7251,
      "multi-": 7252,
      "Ð¾Ð": 7253,
      "BB": 7254,
      "LifeĠ": 7255,
      "Mot": 7256,
      "bankĠ": 7257,
      "fle": 7258,
      "pac": 7259,
      "enterĠ": 7260,
      "oothĠ": 7261,
      "evil": 7262,
      "ionĠforĠ": 7263,
      "never": 7264,
      "wouldĠlikeĠtoĠ": 7265,
      "rownĠ": 7266,
      ".ĠByĠ": 7267,
      "wasĠtoĠ": 7268,
      "schem": 7269,
      "freeĠtoĠ": 7270,
      "closeĠtoĠ": 7271,
      "loveĠtoĠ": 7272,
      ".ĊHow": 7273,
      "dueĠtoĠtheĠ": 7274,
      "Ġthere'sĠ": 7275,
      "makesĠitĠ": 7276,
      "criticalĠ": 7277,
      "DesignĠ": 7278,
      "fourthĠ": 7279,
      "Artic": 7280,
      "AustralianĠ": 7281,
      "corporateĠ": 7282,
      "civilĠ": 7283,
      "Author": 7284,
      "Bow": 7285,
      "ION": 7286,
      "TS": 7287,
      "VID": 7288,
      "s,Ġt": 7289,
      "windĠ": 7290,
      "remark": 7291,
      "lyĠandĠ": 7292,
      "spendingĠ": 7293,
      ".ĠI'mĠ": 7294,
      "lyĠtoĠ": 7295,
      "ondonĠ": 7296,
      "profit": 7297,
      "sampl": 7298,
      "ravel": 7299,
      "ĠthemselvesĠ": 7300,
      "Brook": 7301,
      "ClickFunn": 7302,
      "?\"Ġ": 7303,
      "Bur": 7304,
      "EveryĠ": 7305,
      "Imag": 7306,
      "Sar": 7307,
      "SomeĠ": 7308,
      "TO": 7309,
      "ais": 7310,
      "fairĠ": 7311,
      "youĠthinkĠ": 7312,
      "disclos": 7313,
      "2016": 7314,
      "guit": 7315,
      "12.": 7316,
      "low-": 7317,
      "favour": 7318,
      "MediaĠ": 7319,
      "drivingĠ": 7320,
      "associatedĠwithĠ": 7321,
      "(theĠ": 7322,
      "Lou": 7323,
      "craz": 7324,
      "dys": 7325,
      "ho": 7326,
      "holĠ": 7327,
      "ring": 7328,
      "vul": 7329,
      "ĠÐ": 7330,
      "intĠofĠ": 7331,
      ".ĠCon": 7332,
      "entr": 7333,
      "queĠ": 7334,
      "20-": 7335,
      "weâĢĻveĠ": 7336,
      "ordersĠ": 7337,
      "aboutĠit": 7338,
      "superĠ": 7339,
      "submitt": 7340,
      ".ĠManyĠ": 7341,
      "findĠaĠ": 7342,
      "puttingĠ": 7343,
      "claimĠ": 7344,
      "label": 7345,
      "itemsĠ": 7346,
      "Updat": 7347,
      "riskĠofĠ": 7348,
      "evaluationĠ": 7349,
      "difficultĠtoĠ": 7350,
      "despiteĠ": 7351,
      "Eth": 7352,
      "Gi": 7353,
      "Jon": 7354,
      "cab": 7355,
      "ware": 7356,
      "wishĠ": 7357,
      "oneĠth": 7358,
      "alĠtoĠ": 7359,
      "isher": 7360,
      "olf": 7361,
      "IĠknowĠ": 7362,
      "ĠthatĠitĠ": 7363,
      "conver": 7364,
      "itĠinĠ": 7365,
      ")ĠisĠ": 7366,
      "onĠtheĠt": 7367,
      "formul": 7368,
      "corn": 7369,
      "capital": 7370,
      "focusĠonĠ": 7371,
      "wentĠtoĠ": 7372,
      ".ĠEvenĠ": 7373,
      "2ndĠ": 7374,
      "76": 7375,
      "800": 7376,
      "City": 7377,
      "GB": 7378,
      "Hon": 7379,
      "hu": 7380,
      "ringĠ": 7381,
      "ideas": 7382,
      "man,Ġ": 7383,
      "workedĠ": 7384,
      "visualĠ": 7385,
      "seemsĠtoĠ": 7386,
      "possibil": 7387,
      "internetĠ": 7388,
      "domest": 7389,
      "ĠtreatmentĠ": 7390,
      "kitchenĠ": 7391,
      "BankĠ": 7392,
      "Lt": 7393,
      "Open": 7394,
      "e||": 7395,
      "must": 7396,
      "wire": 7397,
      "sĠâĢĵĠ": 7398,
      "iteĠtheĠ": 7399,
      "suitĠ": 7400,
      "ersâĢĻĠ": 7401,
      "services": 7402,
      "trad": 7403,
      "saleĠ": 7404,
      "concept": 7405,
      "reportedĠ": 7406,
      "feature": 7407,
      "experiencedĠ": 7408,
      "Buff": 7409,
      "Communic": 7410,
      "strictĠ": 7411,
      "FloridaĠ": 7412,
      "seeingĠ": 7413,
      "Champion": 7414,
      "Er": 7415,
      "maĠ": 7416,
      "p.Ġ": 7417,
      "pun": 7418,
      "pill": 7419,
      "embl": 7420,
      "orĠinĠ": 7421,
      "leĠandĠ": 7422,
      "um,Ġ": 7423,
      "2015Ġ": 7424,
      "scop": 7425,
      "buttonĠ": 7426,
      "2006": 7427,
      "GrandĠ": 7428,
      "activities": 7429,
      "circuitĠ": 7430,
      "agreementĠ": 7431,
      "ValleyĠ": 7432,
      "hospital": 7433,
      "inspiredĠ": 7434,
      "Bab": 7435,
      "FA": 7436,
      "FoodĠ": 7437,
      "Squ": 7438,
      "bedĠ": 7439,
      "bert": 7440,
      "jack": 7441,
      "pingĠ": 7442,
      "pullĠ": 7443,
      "alityĠ": 7444,
      "repl": 7445,
      ".ĠYourĠ": 7446,
      "esĠisĠ": 7447,
      "ently,Ġ": 7448,
      "seed": 7449,
      "oday": 7450,
      "needĠforĠ": 7451,
      "ible": 7452,
      "acceptĠ": 7453,
      "dee": 7454,
      "supplyĠ": 7455,
      "2005": 7456,
      "makeĠsureĠ": 7457,
      "life,Ġ": 7458,
      "ĠthroughoutĠ": 7459,
      "monthlyĠ": 7460,
      "asĠwellĠasĠtheĠ": 7461,
      "ness,Ġ": 7462,
      "detailsĠ": 7463,
      "ichig": 7464,
      "Complet": 7465,
      "Health": 7466,
      "rupt": 7467,
      "categor": 7468,
      "daughterĠ": 7469,
      "ChurchĠ": 7470,
      "4Ċ": 7471,
      "BeĠ": 7472,
      "length": 7473,
      "mouth": 7474,
      "itherĠ": 7475,
      "eder": 7476,
      "uringĠtheĠ": 7477,
      "lem": 7478,
      "emon": 7479,
      "unlessĠ": 7480,
      "inĠtheĠworld": 7481,
      "essentialĠ": 7482,
      "compens": 7483,
      "aĠlookĠ": 7484,
      "loan": 7485,
      "belong": 7486,
      "ClubĠ": 7487,
      "home": 7488,
      "familiesĠ": 7489,
      "given": 7490,
      "ures,Ġ": 7491,
      "optionsĠ": 7492,
      "TeamĠ": 7493,
      "containsĠ": 7494,
      "DepartmentĠ": 7495,
      ":0": 7496,
      "Qual": 7497,
      "coldĠ": 7498,
      "nineĠ": 7499,
      "forec": 7500,
      "ationĠthatĠ": 7501,
      "uleĠ": 7502,
      "ridĠ": 7503,
      "raff": 7504,
      "atĠtheĠsam": 7505,
      "aĠsup": 7506,
      "work,Ġ": 7507,
      "eĠthatĠisĠ": 7508,
      "guessĠ": 7509,
      "Energ": 7510,
      "howeverĠ": 7511,
      "applyĠ": 7512,
      "fact,Ġ": 7513,
      "handl": 7514,
      "movement": 7515,
      "news": 7516,
      "begin": 7517,
      ".ĠWeĠareĠ": 7518,
      "speedĠ": 7519,
      "competition": 7520,
      "Tuesday": 7521,
      "Log": 7522,
      "Train": 7523,
      "rorĠ": 7524,
      "ÑĤ": 7525,
      "chainĠ": 7526,
      ":ĠAĠ": 7527,
      "busĠ": 7528,
      "negot": 7529,
      "aryĠofĠ": 7530,
      "lift": 7531,
      "newsp": 7532,
      "Princ": 7533,
      "cultureĠ": 7534,
      "audienceĠ": 7535,
      "femaleĠ": 7536,
      "revenueĠ": 7537,
      "Pay": 7538,
      "Ul": 7539,
      "eableĠ": 7540,
      "mun": 7541,
      "yardĠ": 7542,
      ",ĠW": 7543,
      "eleph": 7544,
      "IĠjustĠ": 7545,
      "ant,Ġ": 7546,
      "hasĠnotĠ": 7547,
      "Start": 7548,
      "WeĠhaveĠ": 7549,
      ".ĠBe": 7550,
      "carry": 7551,
      "statesĠ": 7552,
      "e.com": 7553,
      "colour": 7554,
      "Experi": 7555,
      "home,Ġ": 7556,
      "management": 7557,
      "squareĠ": 7558,
      "percentĠofĠ": 7559,
      "interviewĠ": 7560,
      "cameraĠ": 7561,
      "ProgramĠ": 7562,
      "chiefĠ": 7563,
      "Hal": 7564,
      "Hand": 7565,
      "Mel": 7566,
      "Sing": 7567,
      "Sol": 7568,
      "a,ĠandĠ": 7569,
      "ht": 7570,
      "nerv": 7571,
      "send": 7572,
      "ated,Ġ": 7573,
      "edĠhimĠ": 7574,
      "imentĠ": 7575,
      "itĠofĠ": 7576,
      "artistĠ": 7577,
      "sĠandĠotherĠ": 7578,
      "aĠfew": 7579,
      "becauseĠofĠtheĠ": 7580,
      "advic": 7581,
      "woman": 7582,
      "languag": 7583,
      "beyondĠ": 7584,
      "DigitalĠ": 7585,
      "(2": 7586,
      "CS": 7587,
      "Custom": 7588,
      "NH": 7589,
      "Prem": 7590,
      "banĠ": 7591,
      "pul": 7592,
      "ingĠforĠtheĠ": 7593,
      "editor": 7594,
      "forĠmoreĠ": 7595,
      "cler": 7596,
      "bless": 7597,
      "ency": 7598,
      "command": 7599,
      "desk": 7600,
      "production": 7601,
      "donâĢĻt": 7602,
      "placesĠ": 7603,
      "depos": 7604,
      "dependentĠ": 7605,
      "haveĠtoĠbeĠ": 7606,
      "senseĠofĠ": 7607,
      "summer": 7608,
      "advantageĠ": 7609,
      "mid-": 7610,
      "correctĠ": 7611,
      "Israel": 7612,
      "GH": 7613,
      "Lib": 7614,
      "few": 7615,
      "onĠthatĠ": 7616,
      "orĠt": 7617,
      "enaĠ": 7618,
      "en'sĠ": 7619,
      "ingĠtheseĠ": 7620,
      "inĠsomeĠ": 7621,
      "owerĠ": 7622,
      "usedĠinĠ": 7623,
      "adultĠ": 7624,
      "s.ĠâĢľ": 7625,
      "aintĠ": 7626,
      "Ġtimes": 7627,
      "âĢĵĠtheĠ": 7628,
      "sureĠthatĠ": 7629,
      "extra": 7630,
      "afterĠaĠ": 7631,
      "capabil": 7632,
      "Tran": 7633,
      "launchĠ": 7634,
      "USA": 7635,
      "payment": 7636,
      "cancerĠ": 7637,
      "DevelopmentĠ": 7638,
      "inĠtermsĠofĠ": 7639,
      "32": 7640,
      "Lim": 7641,
      "Veg": 7642,
      "billĠ": 7643,
      "drawĠ": 7644,
      "fellĠ": 7645,
      "hit": 7646,
      "mut": 7647,
      "omet": 7648,
      "plo": 7649,
      "uniqu": 7650,
      "construct": 7651,
      "ultĠofĠ": 7652,
      "irtĠ": 7653,
      "areĠyouĠ": 7654,
      "ripĠ": 7655,
      "-ĠF": 7656,
      "ersĠ(": 7657,
      "ersĠforĠ": 7658,
      "e.ĠButĠ": 7659,
      "willĠhaveĠ": 7660,
      "aĠlot": 7661,
      "ready": 7662,
      "relatedĠtoĠ": 7663,
      "increasingĠ": 7664,
      "problemsĠ": 7665,
      "attentionĠ": 7666,
      "CollegeĠ": 7667,
      "guarante": 7668,
      "comprehensiveĠ": 7669,
      "Victor": 7670,
      "'sĠt": 7671,
      ");Ġ": 7672,
      "OL": 7673,
      ",ĠitĠisĠ": 7674,
      "ar,Ġ": 7675,
      "ingĠthem": 7676,
      "weatherĠ": 7677,
      ".ĠHowĠ": 7678,
      "retail": 7679,
      "saidĠthatĠ": 7680,
      ",ĠthoughĠ": 7681,
      "developedĠ": 7682,
      "employmentĠ": 7683,
      "prison": 7684,
      "mixĠ": 7685,
      "opportunityĠ": 7686,
      "English": 7687,
      "arenâĢĻtĠ": 7688,
      "shoppingĠ": 7689,
      "PersonalĠ": 7690,
      "46": 7691,
      "Ep": 7692,
      "EDĠ": 7693,
      "LordĠ": 7694,
      "cos": 7695,
      "fo": 7696,
      "Ċ>Ġ": 7697,
      "erĠthatĠ": 7698,
      "enâĢĻsĠ": 7699,
      "inĠanyĠ": 7700,
      "ation,ĠandĠ": 7701,
      "haz": 7702,
      "beenĠtheĠ": 7703,
      "liber": 7704,
      "asset": 7705,
      "flight": 7706,
      "aboutĠaĠ": 7707,
      "lyingĠ": 7708,
      "guysĠ": 7709,
      "scholar": 7710,
      "eachĠother": 7711,
      "|Ċ|US": 7712,
      "programsĠ": 7713,
      "redĠtoĠ": 7714,
      "availableĠforĠ": 7715,
      "OpenĠ": 7716,
      "husbandĠ": 7717,
      "FromĠtheĠ": 7718,
      "discussĠ": 7719,
      "-C": 7720,
      "Gir": 7721,
      "MB": 7722,
      "So": 7723,
      "dil": 7724,
      "dark": 7725,
      "lengthĠ": 7726,
      "ingĊ-Ġ": 7727,
      "issĠ": 7728,
      "among": 7729,
      "emor": 7730,
      "iffĠ": 7731,
      "upcomingĠ": 7732,
      "anticip": 7733,
      "willĠalsoĠ": 7734,
      "recall": 7735,
      "more.Ċ": 7736,
      "scaleĠ": 7737,
      "attribut": 7738,
      "don't": 7739,
      "ConferenceĠ": 7740,
      "leadershipĠ": 7741,
      ".ĠPer": 7742,
      "availableĠtoĠ": 7743,
      "iciansĠ": 7744,
      ".ĠOnĠ": 7745,
      "INĠ": 7746,
      "largerĠ": 7747,
      "ity,ĠandĠ": 7748,
      "platformĠ": 7749,
      "girlsĠ": 7750,
      "Well,Ġ": 7751,
      "aĠsimpleĠ": 7752,
      "emotionalĠ": 7753,
      "Group": 7754,
      "ThursdayĠ": 7755,
      "32Ġ": 7756,
      "DN": 7757,
      "IPĠ": 7758,
      "Lev": 7759,
      "Nam": 7760,
      "River": 7761,
      "Yes,Ġ": 7762,
      "riseĠ": 7763,
      "vin": 7764,
      "sĠof": 7765,
      "strip": 7766,
      "edĠthemĠ": 7767,
      "you'veĠ": 7768,
      "leagueĠ": 7769,
      "frustr": 7770,
      "withĠnoĠ": 7771,
      ".ĠThey": 7772,
      "ĠtrustĠ": 7773,
      "merg": 7774,
      "media": 7775,
      "whereĠyouĠ": 7776,
      "needsĠtoĠ": 7777,
      "leadĠtoĠ": 7778,
      "broth": 7779,
      "ThereĠisĠ": 7780,
      "structure": 7781,
      "expectedĠ": 7782,
      "influenc": 7783,
      "incredibleĠ": 7784,
      "AccordingĠtoĠ": 7785,
      "enthusi": 7786,
      "Dre": 7787,
      "LoveĠ": 7788,
      "Priv": 7789,
      "Red": 7790,
      "Ram": 7791,
      "hyp": 7792,
      "edĠup": 7793,
      "rog": 7794,
      "Steph": 7795,
      "itsĠownĠ": 7796,
      "aĠcoll": 7797,
      "verseĠ": 7798,
      "!ĠTheĠ": 7799,
      "extensiveĠ": 7800,
      "workĠandĠ": 7801,
      "installĠ": 7802,
      "edgeĠ": 7803,
      "believeĠthatĠ": 7804,
      "NOTĠ": 7805,
      "BrownĠ": 7806,
      "relevantĠ": 7807,
      "(P": 7808,
      "08": 7809,
      "Card": 7810,
      "Cert": 7811,
      "IO": 7812,
      "Tre": 7813,
      "astr": 7814,
      "fearĠ": 7815,
      "hill": 7816,
      "mand": 7817,
      "rdĠ": 7818,
      "townĠ": 7819,
      ",ĠanĠ": 7820,
      "alentĠ": 7821,
      "ree-": 7822,
      "edĠintoĠtheĠ": 7823,
      "rok": 7824,
      "ungĠ": 7825,
      "umm": 7826,
      "climateĠ": 7827,
      ".ĠIf": 7828,
      "ĠtheirĠownĠ": 7829,
      "pool": 7830,
      "ulturalĠ": 7831,
      "accident": 7832,
      "interiorĠ": 7833,
      "version": 7834,
      "!ĠIĠ": 7835,
      "extend": 7836,
      "eballĠ": 7837,
      "Provid": 7838,
      "Exp": 7839,
      "becauseĠIĠ": 7840,
      "Add": 7841,
      "Ġtermin": 7842,
      "electronicĠ": 7843,
      "volum": 7844,
      "sleepĠ": 7845,
      "Obam": 7846,
      "Islam": 7847,
      "emergencyĠ": 7848,
      "Ġtoward": 7849,
      "BookĠ": 7850,
      "GoldĠ": 7851,
      "LosĠAngel": 7852,
      "Wood": 7853,
      "dueĠ": 7854,
      "flyĠ": 7855,
      "hanĠ": 7856,
      "ofĠanĠ": 7857,
      "beĠaĠ": 7858,
      "âĢĵĠandĠ": 7859,
      "serverĠ": 7860,
      "havingĠaĠ": 7861,
      "balanceĠ": 7862,
      "Back": 7863,
      "Hear": 7864,
      "PostĠ": 7865,
      "kin": 7866,
      "ĊtheĠ": 7867,
      "ĠtheĠsameĠ": 7868,
      "thirdĠ": 7869,
      "chart": 7870,
      "2020Ġ": 7871,
      "iveĠandĠ": 7872,
      "ableĠofĠ": 7873,
      "changingĠ": 7874,
      "whereĠheĠ": 7875,
      "detect": 7876,
      "Shar": 7877,
      "quality": 7878,
      "qualityĠofĠ": 7879,
      ".ĠNowĠ": 7880,
      "ifĠyouĠhaveĠ": 7881,
      "belief": 7882,
      "warn": 7883,
      "warrant": 7884,
      ".\"Ċ\"": 7885,
      "costsĠ": 7886,
      "suppli": 7887,
      "populationĠ": 7888,
      "Distric": 7889,
      "ournamentĠ": 7890,
      "Cod": 7891,
      "Festiv": 7892,
      "Ox": 7893,
      "Pop": 7894,
      "Rac": 7895,
      "countĠ": 7896,
      "ineĠandĠ": 7897,
      "ensu": 7898,
      "alsoĠtheĠ": 7899,
      "stress": 7900,
      "ed.ĊTheĠ": 7901,
      "emiss": 7902,
      "agedĠ": 7903,
      "ake": 7904,
      "odg": 7905,
      "outdoorĠ": 7906,
      "ogg": 7907,
      "awardĠ": 7908,
      "profileĠ": 7909,
      "managerĠ": 7910,
      "joinĠ": 7911,
      "collectionĠ": 7912,
      "investment": 7913,
      "Scienc": 7914,
      "ographicĠ": 7915,
      "SuperĠ": 7916,
      "favorit": 7917,
      "feedbackĠ": 7918,
      "scientificĠ": 7919,
      "ĠtrafficĠ": 7920,
      "Eli": 7921,
      "EachĠ": 7922,
      "HD": 7923,
      "Mult": 7924,
      "cooper": 7925,
      "oâĢĻsĠ": 7926,
      "rum": 7927,
      "Ġtext": 7928,
      "ers,ĠandĠ": 7929,
      "ald": 7930,
      "ate.Ġ": 7931,
      "ingĠthatĠtheĠ": 7932,
      "es;Ġ": 7933,
      "inĠP": 7934,
      "unableĠtoĠ": 7935,
      "shut": 7936,
      "shoot": 7937,
      "itĠcanĠ": 7938,
      "ulateĠ": 7939,
      ",ĠandĠIĠ": 7940,
      "cannotĠbeĠ": 7941,
      "ypeĠofĠ": 7942,
      "social": 7943,
      "identifi": 7944,
      "depress": 7945,
      "post-": 7946,
      "passedĠ": 7947,
      "ĠthereâĢĻsĠ": 7948,
      "EnglandĠ": 7949,
      "wonderĠ": 7950,
      "CanadianĠ": 7951,
      "AfricanĠ": 7952,
      "strik": 7953,
      "Thursday": 7954,
      "hospitalĠ": 7955,
      "(B": 7956,
      "?\"Ċ": 7957,
      "Alex": 7958,
      "Es": 7959,
      "RS": 7960,
      "Sel": 7961,
      "Sant": 7962,
      "Sport": 7963,
      "Tur": 7964,
      "uthĠ": 7965,
      "yĠofĠtheĠ": 7966,
      "alli": 7967,
      "atedĠtheĠ": 7968,
      "ingu": 7969,
      "edĠwithĠaĠ": 7970,
      "ĠtoĠhelpĠ": 7971,
      "ison": 7972,
      "adel": 7973,
      "resultĠofĠ": 7974,
      "leĠofĠ": 7975,
      "buyingĠ": 7976,
      "notĠjustĠ": 7977,
      "years.Ċ": 7978,
      "flightĠ": 7979,
      "desir": 7980,
      "versionĠofĠ": 7981,
      "datingĠ": 7982,
      "stateĠofĠ": 7983,
      "oppon": 7984,
      ".ĊHowĠ": 7985,
      "becomingĠ": 7986,
      "gotĠtoĠ": 7987,
      "Island": 7988,
      "champion": 7989,
      "-the-": 7990,
      "$3": 7991,
      "-inĠ": 7992,
      "Good": 7993,
      "Il": 7994,
      "IĠthoughtĠ": 7995,
      "Jenn": 7996,
      "Roy": 7997,
      "eneĠ": 7998,
      "enousĠ": 7999,
      "als,Ġ": 8000,
      "ifyĠtheĠ": 8001,
      "oticĠ": 8002,
      "s.ĠAĠ": 8003,
      "butĠnotĠ": 8004,
      "aĠcertainĠ": 8005,
      "sheĠisĠ": 8006,
      "merc": 8007,
      "overĠaĠ": 8008,
      "changeĠtheĠ": 8009,
      "defa": 8010,
      "defenseĠ": 8011,
      "immig": 8012,
      "participateĠ": 8013,
      "surveyĠ": 8014,
      "Ã©Ġ": 8015,
      "ObamaĠ": 8016,
      "welcom": 8017,
      "LawĠ": 8018,
      "WithĠtheĠ": 8019,
      "counter": 8020,
      "EducationĠ": 8021,
      "havenâĢĻtĠ": 8022,
      "revenu": 8023,
      "RepublicanĠ": 8024,
      "ingredient": 8025,
      "accomplish": 8026,
      "43": 8027,
      "aĠtim": 8028,
      "craftĠ": 8029,
      "jun": 8030,
      "n.Ġ": 8031,
      "reĠt": 8032,
      "southĠ": 8033,
      "yĠinĠ": 8034,
      "ston": 8035,
      "esot": 8036,
      "esĠthisĠ": 8037,
      "forĠt": 8038,
      "itĠwouldĠ": 8039,
      "manageĠ": 8040,
      "terĠandĠ": 8041,
      "disput": 8042,
      "backgroundĠ": 8043,
      "ryingĠtoĠ": 8044,
      ".\"ĊTheĠ": 8045,
      "sharingĠ": 8046,
      "planĠtoĠ": 8047,
      "socialĠmediaĠ": 8048,
      "encourageĠ": 8049,
      "ensureĠthatĠ": 8050,
      "WednesdayĠ": 8051,
      "holidayĠ": 8052,
      "channel": 8053,
      "citizen": 8054,
      "conditionĠ": 8055,
      "bour": 8056,
      "gunĠ": 8057,
      "mast": 8058,
      "rideĠ": 8059,
      "ing.Ġ": 8060,
      "ing,ĠtheĠ": 8061,
      "Theat": 8062,
      "ampl": 8063,
      "shr": 8064,
      "convert": 8065,
      "ulationĠ": 8066,
      "Ġtrend": 8067,
      "ableĠforĠ": 8068,
      "AnyĠ": 8069,
      "ifĠweĠ": 8070,
      "greg": 8071,
      "UnionĠ": 8072,
      "glass": 8073,
      "locationĠ": 8074,
      "patternĠ": 8075,
      ".ĠPl": 8076,
      ".ĠDoĠ": 8077,
      "organizationĠ": 8078,
      "calend": 8079,
      "establishedĠ": 8080,
      "associatedĠ": 8081,
      "William": 8082,
      "Â©Ġ": 8083,
      "400Ġ": 8084,
      "57": 8085,
      "Feat": 8086,
      "Loc": 8087,
      "London": 8088,
      "Numb": 8089,
      "Por": 8090,
      "SearchĠ": 8091,
      "WA": 8092,
      "fal": 8093,
      "nob": 8094,
      "enessĠ": 8095,
      ",ĠwhileĠ": 8096,
      "atesĠtheĠ": 8097,
      "erĠwasĠ": 8098,
      "esĠbyĠ": 8099,
      "seg": 8100,
      "seen": 8101,
      "withoutĠtheĠ": 8102,
      "doĠitĠ": 8103,
      "boat": 8104,
      "centuryĠ": 8105,
      "simple": 8106,
      "solv": 8107,
      ",\"ĠheĠsaid": 8108,
      "electricĠ": 8109,
      "madeĠtheĠ": 8110,
      "panelĠ": 8111,
      "holiday": 8112,
      "occasion": 8113,
      "eworkĠ": 8114,
      "59": 8115,
      "CareĠ": 8116,
      "HDĠ": 8117,
      "Link": 8118,
      "denĠ": 8119,
      "dinn": 8120,
      "hall": 8121,
      "oh": 8122,
      "rareĠ": 8123,
      "Ċ|": 8124,
      "ically,Ġ": 8125,
      "edĠasĠaĠ": 8126,
      ".ĊK": 8127,
      "oler": 8128,
      "idsĠ": 8129,
      "unningĠ": 8130,
      "s,ĠaĠ": 8131,
      "term": 8132,
      "sĠofĠaĠ": 8133,
      "ervis": 8134,
      ".ĠSh": 8135,
      "relativeĠ": 8136,
      "anywhereĠ": 8137,
      "?ĊTheĠ": 8138,
      "suchĠasĠtheĠ": 8139,
      "minutes": 8140,
      "ravelĠ": 8141,
      "remainsĠ": 8142,
      "rateĠofĠ": 8143,
      "doctor": 8144,
      "expertĠ": 8145,
      "GermanĠ": 8146,
      "fashion": 8147,
      "appeal": 8148,
      "CommitteeĠ": 8149,
      "Bank": 8150,
      "Cost": 8151,
      "Hen": 8152,
      "TomĠ": 8153,
      "Writ": 8154,
      "Wild": 8155,
      "meĠandĠ": 8156,
      "pip": 8157,
      "sĠoutĠ": 8158,
      "en-": 8159,
      "enedĠ": 8160,
      "externalĠ": 8161,
      "river": 8162,
      "scoreĠ": 8163,
      "mayĠnotĠbeĠ": 8164,
      "regionalĠ": 8165,
      "wantedĠ": 8166,
      "simulatedĠ": 8167,
      "Requ": 8168,
      "pathĠ": 8169,
      "numbersĠ": 8170,
      "speechĠ": 8171,
      "passion": 8172,
      "responseĠ": 8173,
      "authorĠ": 8174,
      "ĠthereforeĠ": 8175,
      "softwar": 8176,
      "resourcesĠ": 8177,
      "fairlyĠ": 8178,
      "restaurantĠ": 8179,
      "philos": 8180,
      "66": 8181,
      "Cast": 8182,
      "dar": 8183,
      "doubl": 8184,
      "reject": 8185,
      "ley,Ġ": 8186,
      "ationsĠinĠ": 8187,
      "onĠanĠ": 8188,
      "inĠtheĠfirstĠ": 8189,
      "compat": 8190,
      "enceĠandĠ": 8191,
      "icketĠ": 8192,
      ".ĠHerĠ": 8193,
      "whatĠhappen": 8194,
      "butĠtheyĠ": 8195,
      "decideĠ": 8196,
      "happyĠtoĠ": 8197,
      "deliverĠ": 8198,
      "armac": 8199,
      "now,Ġ": 8200,
      ".ĠTheyĠareĠ": 8201,
      "streamĠ": 8202,
      "cuttingĠ": 8203,
      "Record": 8204,
      "maintainĠ": 8205,
      "cycleĠ": 8206,
      "panel": 8207,
      "footballĠ": 8208,
      "Ġteacher": 8209,
      "instruction": 8210,
      "07": 8211,
      "Cred": 8212,
      "Fun": 8213,
      "Land": 8214,
      "Pag": 8215,
      "Tel": 8216,
      "Youn": 8217,
      "ij": 8218,
      "lob": 8219,
      "s\"Ġ": 8220,
      "varyĠ": 8221,
      "ateĠtoĠ": 8222,
      "them": 8223,
      "ilarĠ": 8224,
      "forum": 8225,
      "inĠallĠ": 8226,
      "estĠandĠ": 8227,
      "2014": 8228,
      "prep": 8229,
      "goalsĠ": 8230,
      "remoteĠ": 8231,
      "know,Ġ": 8232,
      "solid": 8233,
      "downĠtoĠ": 8234,
      "AmericansĠ": 8235,
      "healthcareĠ": 8236,
      "suspect": 8237,
      "innovativeĠ": 8238,
      "Equ": 8239,
      "Fact": 8240,
      "WE": 8241,
      "eh": 8242,
      "eut": 8243,
      "ietĠ": 8244,
      "lb": 8245,
      "Ġteas": 8246,
      "iter": 8247,
      "erĠwithĠ": 8248,
      "ationsĠtoĠ": 8249,
      "shift": 8250,
      "beach": 8251,
      "worryĠ": 8252,
      "diseaseĠ": 8253,
      "ember,Ġ": 8254,
      "slowĠ": 8255,
      "applicationsĠ": 8256,
      "metalĠ": 8257,
      "ServicesĠ": 8258,
      "Oct.Ġ": 8259,
      "comparedĠtoĠ": 8260,
      "materialsĠ": 8261,
      "haven'tĠ": 8262,
      "aĠsecondĠ": 8263,
      "crowd": 8264,
      "Histor": 8265,
      "automaticallyĠ": 8266,
      "PacificĠ": 8267,
      "familiarĠ": 8268,
      "AndroidĠ": 8269,
      "a)Ġ": 8270,
      "kyĠ": 8271,
      "pover": 8272,
      "ramĠ": 8273,
      "sight": 8274,
      "uzz": 8275,
      "rein": 8276,
      "aĠD": 8277,
      "aĠmoreĠ": 8278,
      "theirĠ": 8279,
      "plug": 8280,
      "agent": 8281,
      "notĠaĠ": 8282,
      "avingĠ": 8283,
      "Challeng": 8284,
      "2016Ġ": 8285,
      "declin": 8286,
      "subsid": 8287,
      "ementĠofĠ": 8288,
      ",ĠbutĠIĠ": 8289,
      "yourĠt": 8290,
      "loss": 8291,
      "processingĠ": 8292,
      "wouldn'tĠ": 8293,
      "Employ": 8294,
      "California": 8295,
      "WilliamĠ": 8296,
      "entirelyĠ": 8297,
      "-ĠtheĠ": 8298,
      "1stĠ": 8299,
      "GS": 8300,
      "Hor": 8301,
      "tri": 8302,
      "aterĠ": 8303,
      "threeĠ": 8304,
      "forĠthoseĠ": 8305,
      "orĠmoreĠ": 8306,
      "orĠnot": 8307,
      "ersĠcanĠ": 8308,
      "allĠoverĠtheĠ": 8309,
      "mann": 8310,
      "hisĠownĠ": 8311,
      "anchĠ": 8312,
      "2017Ġ": 8313,
      "lifest": 8314,
      "secureĠ": 8315,
      "processĠofĠ": 8316,
      "TrumpĠ": 8317,
      "feelsĠ": 8318,
      "ĠtooĠmuchĠ": 8319,
      "letĠmeĠ": 8320,
      "----": 8321,
      "onlyĠtheĠ": 8322,
      "Secret": 8323,
      "sweet": 8324,
      "budget": 8325,
      "oblig": 8326,
      ":30": 8327,
      "AA": 8328,
      "Ath": 8329,
      "ML": 8330,
      "OO": 8331,
      "Ur": 8332,
      "nin": 8333,
      "nos": 8334,
      "oz": 8335,
      "oingĠ": 8336,
      "ĊR": 8337,
      "erialĠ": 8338,
      "al-": 8339,
      "oĠisĠ": 8340,
      "style": 8341,
      "es,": 8342,
      "ofĠitsĠ": 8343,
      "usĠtheĠ": 8344,
      "plasticĠ": 8345,
      "proofĠ": 8346,
      "upperĠ": 8347,
      "y,ĠbutĠ": 8348,
      "contest": 8349,
      "ancesĠ": 8350,
      "brightĠ": 8351,
      "aĠcr": 8352,
      "basket": 8353,
      "eĊTheĠ": 8354,
      "abilityĠofĠ": 8355,
      "eathĠ": 8356,
      "sharedĠ": 8357,
      "organizationsĠ": 8358,
      "pagesĠ": 8359,
      "originallyĠ": 8360,
      "culture": 8361,
      "sessionĠ": 8362,
      "blogg": 8363,
      "ontoĠtheĠ": 8364,
      "PartyĠ": 8365,
      "150": 8366,
      "FederalĠ": 8367,
      "Mah": 8368,
      "Ric": 8369,
      "TMĠ": 8370,
      "lack": 8371,
      "ĠIĠ": 8372,
      "atĠandĠ": 8373,
      "eĠthoseĠ": 8374,
      "conclud": 8375,
      "s,ĠandĠtheĠ": 8376,
      "distr": 8377,
      "ellsĠ": 8378,
      ".ĠThatâĢĻsĠ": 8379,
      "e.Ċ\"": 8380,
      "dispos": 8381,
      "2018": 8382,
      "basicallyĠ": 8383,
      "lifeĠandĠ": 8384,
      "slid": 8385,
      "heard": 8386,
      "apply": 8387,
      "leadersĠ": 8388,
      "home.Ġ": 8389,
      ".ĠNow": 8390,
      "certain": 8391,
      "Applic": 8392,
      "domainĠ": 8393,
      "Guid": 8394,
      "session": 8395,
      "regardingĠ": 8396,
      "discussionĠ": 8397,
      "membersĠofĠtheĠ": 8398,
      "Publish": 8399,
      "facilit": 8400,
      "ProductĠ": 8401,
      "exclusiveĠ": 8402,
      "email@example.com": 8403,
      ".D": 8404,
      "56": 8405,
      "Sit": 8406,
      "TA": 8407,
      "Vill": 8408,
      "Viet": 8409,
      "WallĠ": 8410,
      "berĠ": 8411,
      "bond": 8412,
      "cann": 8413,
      "maleĠ": 8414,
      "s,âĢĿĠ": 8415,
      ",ĠbutĠtheĠ": 8416,
      "oĠ(": 8417,
      "repr": 8418,
      "inĠF": 8419,
      "forĠitsĠ": 8420,
      "conclus": 8421,
      ".ĠIfĠtheĠ": 8422,
      ".ĠAr": 8423,
      "s.Ċ\"": 8424,
      "ensionĠ": 8425,
      "poonĠ": 8426,
      "justĠaĠ": 8427,
      "lookingĠtoĠ": 8428,
      "Trad": 8429,
      "delight": 8430,
      "explan": 8431,
      "Brad": 8432,
      "documentĠ": 8433,
      "first-": 8434,
      "building": 8435,
      "volut": 8436,
      "realĠestateĠ": 8437,
      "groupsĠ": 8438,
      "sweetĠ": 8439,
      "ordinaryĠ": 8440,
      "Ġtransport": 8441,
      "analyt": 8442,
      "mistak": 8443,
      "JapaneseĠ": 8444,
      "anxiet": 8445,
      "Lin": 8446,
      "Mid": 8447,
      "Soft": 8448,
      "UpĠ": 8449,
      "citiesĠ": 8450,
      "fli": 8451,
      "footĠ": 8452,
      "killĠ": 8453,
      "laĠ": 8454,
      "sop": 8455,
      "icianĠ": 8456,
      "inĠK": 8457,
      "impl": 8458,
      "abus": 8459,
      "agreeĠ": 8460,
      "neu": 8461,
      "encoun": 8462,
      "noteĠ": 8463,
      "subsequ": 8464,
      "Arm": 8465,
      "ross": 8466,
      "often": 8467,
      "Addition": 8468,
      "12-": 8469,
      "featuredĠ": 8470,
      "directorĠ": 8471,
      "justĠtheĠ": 8472,
      "Origin": 8473,
      "companies": 8474,
      "releasedĠ": 8475,
      "menuĠ": 8476,
      "filledĠwithĠ": 8477,
      "betterĠthanĠ": 8478,
      "layerĠ": 8479,
      "brokenĠ": 8480,
      "emotion": 8481,
      "princip": 8482,
      "exerciseĠ": 8483,
      ".ĠAccord": 8484,
      "shootingĠ": 8485,
      "gottenĠ": 8486,
      "reprene": 8487,
      "48Ġ": 8488,
      "ATĠ": 8489,
      "ESĠ": 8490,
      "FullĠ": 8491,
      "Wis": 8492,
      "afĠ": 8493,
      "boundĠ": 8494,
      "iationĠ": 8495,
      "rubb": 8496,
      "igar": 8497,
      "agencyĠ": 8498,
      "youĠwantĠtoĠ": 8499,
      "intens": 8500,
      "worri": 8501,
      "containĠ": 8502,
      "atĠtheĠtim": 8503,
      "ancedĠ": 8504,
      "ownersĠ": 8505,
      "grewĠ": 8506,
      "CommissionĠ": 8507,
      "subt": 8508,
      "subscrib": 8509,
      "eachĠotherĠ": 8510,
      "handleĠ": 8511,
      "adviceĠ": 8512,
      "speed": 8513,
      "payingĠ": 8514,
      "President": 8515,
      "neck": 8516,
      "computer": 8517,
      "healthĠcareĠ": 8518,
      "Super": 8519,
      "First": 8520,
      "destroy": 8521,
      "ideaĠofĠ": 8522,
      "specificallyĠ": 8523,
      "utiliz": 8524,
      "wasteĠ": 8525,
      "HistoryĠ": 8526,
      "repair": 8527,
      "navig": 8528,
      "FinancialĠ": 8529,
      "vulner": 8530,
      "Hosp": 8531,
      "domĠ": 8532,
      "lect": 8533,
      "sad": 8534,
      "sĠthroughĠ": 8535,
      "itz": 8536,
      "aĠnumberĠofĠ": 8537,
      "edĠmeĠ": 8538,
      "The": 8539,
      "ossĠ": 8540,
      "upp": 8541,
      "diabet": 8542,
      "StyleĠ": 8543,
      "creativ": 8544,
      "boyĠ": 8545,
      "facult": 8546,
      "pricesĠ": 8547,
      "while,Ġ": 8548,
      "farmĠ": 8549,
      "registeredĠ": 8550,
      "clinicalĠ": 8551,
      "employeesĠ": 8552,
      "obtainĠ": 8553,
      "databas": 8554,
      "pepper": 8555,
      "$Ġ": 8556,
      "2/": 8557,
      "97": 8558,
      "Eff": 8559,
      "IAĠ": 8560,
      "LondonĠ": 8561,
      "hid": 8562,
      "lux": 8563,
      "voc": 8564,
      "Ġtip": 8565,
      "chairĠ": 8566,
      "withĠthem": 8567,
      "hasĠalsoĠ": 8568,
      ".ĠHereĠ": 8569,
      "ansasĠ": 8570,
      "ĠthereĠisĠaĠ": 8571,
      "Ġteen": 8572,
      "solidĠ": 8573,
      "lastĠweek": 8574,
      "ActĠ": 8575,
      "booksĠ": 8576,
      "practicalĠ": 8577,
      "App": 8578,
      "provideĠaĠ": 8579,
      "keepĠtheĠ": 8580,
      "historicalĠ": 8581,
      "successfullyĠ": 8582,
      "Street": 8583,
      "brief": 8584,
      "HumanĠ": 8585,
      ").Ġ": 8586,
      "99Ġ": 8587,
      "AMĠ": 8588,
      "Du": 8589,
      "GM": 8590,
      "Gra": 8591,
      "KingĠ": 8592,
      "Rest": 8593,
      "berg": 8594,
      "iam": 8595,
      "Ð½": 8596,
      "are,Ġ": 8597,
      "whel": 8598,
      "exchangeĠ": 8599,
      "fruitĠ": 8600,
      "upĠtoĠtheĠ": 8601,
      "e.ĠAĠ": 8602,
      "out,Ġ": 8603,
      "ization": 8604,
      "case,Ġ": 8605,
      "aturalĠ": 8606,
      "helpfulĠ": 8607,
      "jointĠ": 8608,
      "listedĠ": 8609,
      "collection": 8610,
      "allowingĠ": 8611,
      "authent": 8612,
      "meaning": 8613,
      "physi": 8614,
      "registrationĠ": 8615,
      "communicationĠ": 8616,
      "onĠSatur": 8617,
      "dreamĠ": 8618,
      "DataĠ": 8619,
      "Church": 8620,
      "properlyĠ": 8621,
      ".âĢĿ": 8622,
      "2:": 8623,
      "GR": 8624,
      "Mount": 8625,
      "Sem": 8626,
      "Vo": 8627,
      "f-": 8628,
      "sac": 8629,
      "its": 8630,
      "themĠ": 8631,
      "usingĠaĠ": 8632,
      "onĠherĠ": 8633,
      "eĠthey": 8634,
      "seyĠ": 8635,
      "diet": 8636,
      "context": 8637,
      "ancientĠ": 8638,
      "herĠtoĠ": 8639,
      "âĢĿĠ(": 8640,
      "Anim": 8641,
      "drinkĠ": 8642,
      "onlyĠoneĠ": 8643,
      "ed,ĠbutĠ": 8644,
      "carbonĠ": 8645,
      "ricul": 8646,
      "patch": 8647,
      "valid": 8648,
      ".ĠDon": 8649,
      "USAĠ": 8650,
      "imagesĠ": 8651,
      "Ġthere.Ġ": 8652,
      "reasonableĠ": 8653,
      "normallyĠ": 8654,
      "couldn'tĠ": 8655,
      "olution": 8656,
      "consumerĠ": 8657,
      "aspectĠ": 8658,
      "countriesĠ": 8659,
      "earlierĠ": 8660,
      "RichardĠ": 8661,
      "3DĠ": 8662,
      "9,Ġ": 8663,
      "Aust": 8664,
      "AtĠtheĠ": 8665,
      "Bost": 8666,
      "SU": 8667,
      "Ven": 8668,
      "Wel": 8669,
      "aĠtheĠ": 8670,
      "gear": 8671,
      "wal": 8672,
      "winterĠ": 8673,
      "yaĠ": 8674,
      "ĊP": 8675,
      "eĠwithĠ": 8676,
      "ately": 8677,
      "ing?Ġ": 8678,
      "stup": 8679,
      "stoodĠ": 8680,
      "iction": 8681,
      "ecom": 8682,
      "recycl": 8683,
      "âĢľtheĠ": 8684,
      "effortĠ": 8685,
      "ĠtheyĠhaveĠ": 8686,
      "ookĠtheĠ": 8687,
      "innesot": 8688,
      "electricalĠ": 8689,
      "wereĠtheĠ": 8690,
      "Christian": 8691,
      ",ĠthisĠisĠ": 8692,
      "reasonsĠ": 8693,
      "labor": 8694,
      "motor": 8695,
      "ĠtwiceĠ": 8696,
      "normal": 8697,
      "professionalsĠ": 8698,
      "SpecialĠ": 8699,
      "____": 8700,
      "Bet": 8701,
      "Zeal": 8702,
      "fellowĠ": 8703,
      "icialĠ": 8704,
      "plansĠ": 8705,
      "agentĠ": 8706,
      "youĠcouldĠ": 8707,
      "updatedĠ": 8708,
      "evidenc": 8709,
      "gran": 8710,
      "anceĠtoĠ": 8711,
      "meant": 8712,
      "wasĠt": 8713,
      "howĠmanyĠ": 8714,
      "ification": 8715,
      "Brand": 8716,
      "workingĠwithĠ": 8717,
      "opportunities": 8718,
      "confident": 8719,
      "team": 8720,
      "Friday,Ġ": 8721,
      "nearĠtheĠ": 8722,
      "SenateĠ": 8723,
      "mentionedĠ": 8724,
      "flavor": 8725,
      "industrialĠ": 8726,
      "erefore,Ġ": 8727,
      "-and-": 8728,
      "85": 8729,
      "FRE": 8730,
      "Lar": 8731,
      "RiverĠ": 8732,
      "eum": 8733,
      "ginĠ": 8734,
      "nativeĠ": 8735,
      "sĠthat": 8736,
      "toĠtheĠ": 8737,
      "ĊInĠ": 8738,
      "onĠt": 8739,
      ".ĊIfĠyouĠ": 8740,
      "amend": 8741,
      "untĠ": 8742,
      "prohib": 8743,
      "earningĠ": 8744,
      "seekĠ": 8745,
      "s.ĠButĠ": 8746,
      "more": 8747,
      "fromĠyourĠ": 8748,
      "ence.Ġ": 8749,
      "flatĠ": 8750,
      "deserv": 8751,
      "visitor": 8752,
      "ratesĠ": 8753,
      "couldĠnotĠ": 8754,
      "saidĠheĠ": 8755,
      "everyth": 8756,
      "identifyĠ": 8757,
      "Phys": 8758,
      "closelyĠ": 8759,
      ".ĊAfterĠ": 8760,
      "Ġtransfer": 8761,
      "equiv": 8762,
      "ativesĠ": 8763,
      "involvedĠinĠ": 8764,
      "chees": 8765,
      "WaterĠ": 8766,
      ".ĠOnceĠ": 8767,
      "advantag": 8768,
      "kindsĠofĠ": 8769,
      "NorthernĠ": 8770,
      "aĠseriesĠofĠ": 8771,
      "understandĠtheĠ": 8772,
      "hundredsĠofĠ": 8773,
      "ExecutiveĠ": 8774,
      "77": 8775,
      "DO": 8776,
      "Fe": 8777,
      "GameĠ": 8778,
      "Win": 8779,
      "Yeah": 8780,
      "danceĠ": 8781,
      "soul": 8782,
      "sudden": 8783,
      "erect": 8784,
      "ano": 8785,
      "stair": 8786,
      "stuckĠ": 8787,
      ".ĊSt": 8788,
      ".ĊInĠtheĠ": 8789,
      "adequ": 8790,
      "id,Ġ": 8791,
      "resourceĠ": 8792,
      "actingĠ": 8793,
      "hasĠanĠ": 8794,
      "ingĠtheĠt": 8795,
      "discount": 8796,
      "whichĠwasĠ": 8797,
      "engin": 8798,
      "anything": 8799,
      "easy": 8800,
      "willĠbeĠableĠtoĠ": 8801,
      "cry": 8802,
      "Club": 8803,
      "developmentĠofĠ": 8804,
      "managedĠtoĠ": 8805,
      "mightĠhaveĠ": 8806,
      "esĠthatĠareĠ": 8807,
      "weren": 8808,
      "employeeĠ": 8809,
      "potential": 8810,
      "Muslim": 8811,
      "survey": 8812,
      "bloodĠpressureĠ": 8813,
      "faithĠ": 8814,
      "expertsĠ": 8815,
      "ĠtheseĠt": 8816,
      "spokes": 8817,
      "alcoholĠ": 8818,
      "victoryĠ": 8819,
      "adelph": 8820,
      "06": 8821,
      "EP": 8822,
      "OutĠ": 8823,
      "Technolog": 8824,
      "Tayl": 8825,
      "afra": 8826,
      "bb": 8827,
      "fro": 8828,
      "nuc": 8829,
      "pec": 8830,
      "ëĭ": 8831,
      "refr": 8832,
      "isĠbeingĠ": 8833,
      "asĠmanyĠ": 8834,
      "igu": 8835,
      "evenĠtheĠ": 8836,
      "quiet": 8837,
      "Inst": 8838,
      "days,Ġ": 8839,
      "decreas": 8840,
      ",ĠbutĠitĠ": 8841,
      "sitesĠ": 8842,
      "hearingĠ": 8843,
      "havingĠtoĠ": 8844,
      "allowedĠ": 8845,
      ".ĠInĠaddition": 8846,
      "priorĠtoĠ": 8847,
      "born": 8848,
      ",ĠtheyĠareĠ": 8849,
      "nessĠandĠ": 8850,
      "compli": 8851,
      "ruleĠ": 8852,
      "remainingĠ": 8853,
      "UserĠ": 8854,
      "photograp": 8855,
      "convinc": 8856,
      "spiritualĠ": 8857,
      "$5": 8858,
      "(N": 8859,
      "CAĠ": 8860,
      "Gall": 8861,
      "Luc": 8862,
      "Lov": 8863,
      "Sher": 8864,
      "Test": 8865,
      "TechnologyĠ": 8866,
      "xx": 8867,
      "sĠand": 8868,
      "an-": 8869,
      "an'sĠ": 8870,
      "ous,Ġ": 8871,
      "ofĠthis": 8872,
      "stickĠ": 8873,
      "atĠallĠ": 8874,
      "immediateĠ": 8875,
      "sheâĢĻsĠ": 8876,
      "eĠtog": 8877,
      "s.ĠYouĠ": 8878,
      ".ĠAtĠtheĠ": 8879,
      "ĠtheyĠcanĠ": 8880,
      "aĠsur": 8881,
      "offici": 8882,
      "overĠandĠ": 8883,
      "says,Ġ": 8884,
      "cash": 8885,
      "NewĠZeal": 8886,
      "%ĠofĠtheĠ": 8887,
      "whatâĢĻsĠ": 8888,
      "picture": 8889,
      "quickly": 8890,
      "improvedĠ": 8891,
      "promoteĠ": 8892,
      "subjectĠtoĠ": 8893,
      "battleĠ": 8894,
      "elevisionĠ": 8895,
      "busyĠ": 8896,
      "responsibleĠforĠ": 8897,
      "A-": 8898,
      "Ma": 8899,
      "buck": 8900,
      "kne": 8901,
      "s||": 8902,
      "ĠtestĠ": 8903,
      "erryĠ": 8904,
      "alesĠ": 8905,
      ".ĠFor": 8906,
      "ofĠB": 8907,
      "ofĠallĠ": 8908,
      "rovers": 8909,
      "inĠD": 8910,
      "prospect": 8911,
      "uponĠtheĠ": 8912,
      "spread": 8913,
      "s.ĠB": 8914,
      "willĠnotĠbeĠ": 8915,
      "ively": 8916,
      "Insur": 8917,
      ".ĠAsĠaĠ": 8918,
      "affectĠ": 8919,
      "aĠlocalĠ": 8920,
      "aĠfreeĠ": 8921,
      "place,Ġ": 8922,
      "dayĠandĠ": 8923,
      "cru": 8924,
      "detailĠ": 8925,
      "knowĠwhatĠ": 8926,
      "Expl": 8927,
      "speech": 8928,
      "prote": 8929,
      "realityĠ": 8930,
      "catchĠ": 8931,
      "venu": 8932,
      "education": 8933,
      "RoadĠ": 8934,
      "history": 8935,
      "historicĠ": 8936,
      "gotĠtheĠ": 8937,
      "ChinaĠ": 8938,
      "aggress": 8939,
      "preferredĠ": 8940,
      "behavior": 8941,
      "CEOĠ": 8942,
      "eĠteamĠ": 8943,
      "partnershipĠ": 8944,
      "album": 8945,
      "EL": 8946,
      "EM": 8947,
      "Get": 8948,
      "Job": 8949,
      "List": 8950,
      "Nav": 8951,
      "biteĠ": 8952,
      "ca": 8953,
      "lesĠandĠ": 8954,
      "esc": 8955,
      "es?Ġ": 8956,
      "ofĠcourse,Ġ": 8957,
      "ision": 8958,
      "asĠpossible": 8959,
      "uni": 8960,
      "witness": 8961,
      "onĠB": 8962,
      "youĠgetĠ": 8963,
      "ive.Ġ": 8964,
      "âĢĿĠtheĠ": 8965,
      "yearsĠandĠ": 8966,
      "vibr": 8967,
      "ousandĠ": 8968,
      "letsĠ": 8969,
      "oldĠtheĠ": 8970,
      "said,ĠâĢľ": 8971,
      "respectĠ": 8972,
      "systemsĠ": 8973,
      "handsĠ": 8974,
      "later,Ġ": 8975,
      "Grad": 8976,
      "organicĠ": 8977,
      "laidĠ": 8978,
      "potentiallyĠ": 8979,
      "confus": 8980,
      "driverĠ": 8981,
      "Ġtradition": 8982,
      "MusicĠ": 8983,
      "purposeĠ": 8984,
      "DonâĢĻtĠ": 8985,
      "renew": 8986,
      "smallerĠ": 8987,
      "Australia": 8988,
      "apparentlyĠ": 8989,
      "),ĠtheĠ": 8990,
      "DailyĠ": 8991,
      "Lak": 8992,
      "Laur": 8993,
      "Michig": 8994,
      "dens": 8995,
      "mouthĠ": 8996,
      "pushĠ": 8997,
      "wildĠ": 8998,
      "âĨ": 8999,
      "isĠonĠ": 9000,
      "assa": 9001,
      "asĠandĠ": 9002,
      "ationsĠareĠ": 9003,
      "beingĠaĠ": 9004,
      "herit": 9005,
      "aĠsol": 9006,
      "phereĠ": 9007,
      "upĠinĠ": 9008,
      "selectionĠ": 9009,
      "OnlyĠ": 9010,
      "crack": 9011,
      "series": 9012,
      "azz": 9013,
      "closedĠ": 9014,
      "presentationĠ": 9015,
      "Corp": 9016,
      "voteĠ": 9017,
      "error": 9018,
      "rapid": 9019,
      "mobil": 9020,
      "p.m.Ġ": 9021,
      "moist": 9022,
      "earlier": 9023,
      "component": 9024,
      "long-termĠ": 9025,
      "Strateg": 9026,
      "!Ċ-Ġ": 9027,
      "Cit": 9028,
      "Che": 9029,
      "D-": 9030,
      "Pack": 9031,
      "might": 9032,
      "pump": 9033,
      "rush": 9034,
      "ato": 9035,
      "ingĠthis": 9036,
      "aĠH": 9037,
      "concre": 9038,
      "residentsĠ": 9039,
      "perf": 9040,
      "spreadĠ": 9041,
      "ivilĠ": 9042,
      "etĠal": 9043,
      "contemporaryĠ": 9044,
      "contrast": 9045,
      "needĠaĠ": 9046,
      "ell,Ġ": 9047,
      "creamĠ": 9048,
      "line": 9049,
      "preserv": 9050,
      "Anton": 9051,
      "held": 9052,
      "ishingĠ": 9053,
      "ifĠheĠ": 9054,
      "2009Ġ": 9055,
      "changedĠ": 9056,
      "ionsĠofĠtheĠ": 9057,
      "ProjectĠ": 9058,
      "moder": 9059,
      "e.âĢĿĠ": 9060,
      "Pract": 9061,
      "well,Ġ": 9062,
      "worldâĢĻsĠ": 9063,
      "projectsĠ": 9064,
      "drivenĠ": 9065,
      "institution": 9066,
      "Connect": 9067,
      "(1": 9068,
      "-of-": 9069,
      "AsĠaĠ": 9070,
      "MikeĠ": 9071,
      "cm": 9072,
      "cro": 9073,
      "ga": 9074,
      "nurs": 9075,
      "rantĠ": 9076,
      "ìĿ": 9077,
      "oneĠt": 9078,
      "ornĠ": 9079,
      "enableĠ": 9080,
      "itle": 9081,
      "acy": 9082,
      "exter": 9083,
      "aps": 9084,
      "akedĠ": 9085,
      "fromĠthisĠ": 9086,
      "weetĠ": 9087,
      "makingĠtheĠ": 9088,
      "pointĠofĠ": 9089,
      "ultim": 9090,
      "ibil": 9091,
      "wouldĠnotĠ": 9092,
      "ownedĠ": 9093,
      "whenĠsheĠ": 9094,
      "smooth": 9095,
      "background": 9096,
      "weeklyĠ": 9097,
      "game,Ġ": 9098,
      "informationĠaboutĠ": 9099,
      "aĠhal": 9100,
      "photosĠ": 9101,
      "bergĠ": 9102,
      "Quest": 9103,
      "cameĠtoĠ": 9104,
      "measureĠ": 9105,
      "successful": 9106,
      "situationĠ": 9107,
      ".ĠOnĠtheĠ": 9108,
      "efficientĠ": 9109,
      "NetworkĠ": 9110,
      "pairĠofĠ": 9111,
      "ChicagoĠ": 9112,
      "Atlant": 9113,
      "aĠsignific": 9114,
      "33Ġ": 9115,
      "86": 9116,
      "Ash": 9117,
      "LetĠ": 9118,
      "Pap": 9119,
      "Sn": 9120,
      "fatĠ": 9121,
      "snow": 9122,
      "inhib": 9123,
      "ersĠthatĠ": 9124,
      "ingĠthroughĠ": 9125,
      "IĠgotĠ": 9126,
      "uls": 9127,
      "ersĠwillĠ": 9128,
      ".ĠSo,Ġ": 9129,
      "local": 9130,
      ".Ċ-ĠTheĠ": 9131,
      "AddĠ": 9132,
      "breakingĠ": 9133,
      "consump": 9134,
      "Span": 9135,
      ".ĠInĠthisĠ": 9136,
      "findingĠ": 9137,
      "BeforeĠ": 9138,
      "springĠ": 9139,
      "aĠbitĠofĠ": 9140,
      "integratedĠ": 9141,
      "injuryĠ": 9142,
      "Philadelph": 9143,
      "westernĠ": 9144,
      "CT": 9145,
      "EX": 9146,
      "Maj": 9147,
      "aĠtimeĠ": 9148,
      "logĠ": 9149,
      "satĠ": 9150,
      "ĠThisĠ": 9151,
      "ģĦ": 9152,
      "andĠisĠ": 9153,
      "es/": 9154,
      "elĠandĠ": 9155,
      "actĠofĠ": 9156,
      "eterĠ": 9157,
      "agric": 9158,
      "aĠlif": 9159,
      "ly,ĠtheĠ": 9160,
      "sĠareĠnotĠ": 9161,
      "area,Ġ": 9162,
      "storm": 9163,
      "submitĠ": 9164,
      "crash": 9165,
      "useĠofĠtheĠ": 9166,
      "downĠandĠ": 9167,
      "coverageĠ": 9168,
      "eveningĠ": 9169,
      "lossĠ": 9170,
      "ographyĠ": 9171,
      "Ġthere,Ġ": 9172,
      "Indian": 9173,
      "packageĠ": 9174,
      "cheapĠ": 9175,
      "damageĠ": 9176,
      "criter": 9177,
      "responsibil": 9178,
      "significantlyĠ": 9179,
      "ĠthereĠisĠnoĠ": 9180,
      "ItalianĠ": 9181,
      "FL": 9182,
      "FamilyĠ": 9183,
      "Penn": 9184,
      "cak": 9185,
      "cold": 9186,
      "counc": 9187,
      "gas": 9188,
      "lav": 9189,
      "packĠ": 9190,
      "ofĠS": 9191,
      "isĠthatĠtheĠ": 9192,
      "ThenĠ": 9193,
      "admitt": 9194,
      "we'veĠ": 9195,
      "odayĠ": 9196,
      "s.ĊInĠ": 9197,
      "2014Ġ": 9198,
      "hero": 9199,
      "common": 9200,
      "servingĠ": 9201,
      "plementĠ": 9202,
      "Frank": 9203,
      "correspond": 9204,
      "canĠbeĠfoundĠ": 9205,
      "1999": 9206,
      "article": 9207,
      "DeanĠ": 9208,
      "symbol": 9209,
      "ĠtowardsĠ": 9210,
      "accurateĠ": 9211,
      "Avail": 9212,
      "thoughĠtheĠ": 9213,
      "TwitterĠ": 9214,
      "stretch": 9215,
      "AwardĠ": 9216,
      "Driv": 9217,
      "pond": 9218,
      "smartĠ": 9219,
      "wonĠtheĠ": 9220,
      "Ã¡": 9221,
      "yĠB": 9222,
      "ictĠ": 9223,
      "elementsĠ": 9224,
      "acet": 9225,
      "root": 9226,
      "owardsĠ": 9227,
      "compris": 9228,
      "itĠforĠ": 9229,
      "fromĠhisĠ": 9230,
      "controvers": 9231,
      "ance.Ċ": 9232,
      "2019Ġ": 9233,
      "flour": 9234,
      "iresĠ": 9235,
      "ableĠt": 9236,
      "couldĠhaveĠ": 9237,
      "ERS": 9238,
      "believeĠth": 9239,
      ".ĠAll": 9240,
      "Access": 9241,
      "AssociationĠ": 9242,
      "Google": 9243,
      "selectedĠ": 9244,
      "proposedĠ": 9245,
      "refus": 9246,
      "German": 9247,
      "morning": 9248,
      "diverseĠ": 9249,
      "fabric": 9250,
      "@Ġ": 9251,
      "Mass": 9252,
      "Max": 9253,
      "OK": 9254,
      "Ren": 9255,
      "Wi": 9256,
      "fanĠ": 9257,
      "me.Ċ": 9258,
      "slip": 9259,
      "âģĦ": 9260,
      "Ċ(": 9261,
      "Ġ-Ġ": 9262,
      "anoĠ": 9263,
      "ousĠandĠ": 9264,
      "isĠoneĠofĠtheĠ": 9265,
      "inĠoneĠ": 9266,
      "chron": 9267,
      "conferenc": 9268,
      "youĠhaveĠtoĠ": 9269,
      "clar": 9270,
      "Ġtruck": 9271,
      "Whil": 9272,
      "brilli": 9273,
      "ablesĠ": 9274,
      "noĠmatterĠ": 9275,
      "placedĠ": 9276,
      "2008Ġ": 9277,
      "Comment": 9278,
      "fulfill": 9279,
      ",âĢĿĠsheĠ": 9280,
      "Prom": 9281,
      "collectĠ": 9282,
      "myster": 9283,
      "senseĠ": 9284,
      "Nov.Ġ": 9285,
      "raisedĠ": 9286,
      "costĠofĠ": 9287,
      "protectedĠ": 9288,
      "attemptĠtoĠ": 9289,
      "satisfi": 9290,
      "perfectlyĠ": 9291,
      "kitchen": 9292,
      "gardenĠ": 9293,
      "DistrictĠ": 9294,
      "-up": 9295,
      "04": 9296,
      "EricĠ": 9297,
      "Fund": 9298,
      "Look": 9299,
      "OM": 9300,
      "SP": 9301,
      "dail": 9302,
      "dump": 9303,
      "eopleĠ": 9304,
      "rickĠ": 9305,
      "ule": 9306,
      "ings": 9307,
      "ofĠtimeĠ": 9308,
      "es)Ġ": 9309,
      "ĠtoĠourĠ": 9310,
      "forĠherĠ": 9311,
      "district": 9312,
      "allĠyourĠ": 9313,
      "blind": 9314,
      "butĠitĠ": 9315,
      "overwhel": 9316,
      "feet": 9317,
      "daysĠofĠ": 9318,
      "YouT": 9319,
      "ĠthereĠwereĠ": 9320,
      "life.Ċ": 9321,
      "intoĠyourĠ": 9322,
      "sĊTheĠ": 9323,
      "wrapp": 9324,
      ".ĠWeĠhaveĠ": 9325,
      "musicalĠ": 9326,
      "seemedĠ": 9327,
      ".ĊMyĠ": 9328,
      "berryĠ": 9329,
      "built": 9330,
      "eĠtimeĠtoĠ": 9331,
      "leavesĠ": 9332,
      "Inc.Ġ": 9333,
      "JohnsonĠ": 9334,
      "daughter": 9335,
      "alcohol": 9336,
      "wealth": 9337,
      "awesomeĠ": 9338,
      "RussianĠ": 9339,
      "!!Ċ": 9340,
      "63": 9341,
      "Dut": 9342,
      "VEĠ": 9343,
      "Wr": 9344,
      "X-": 9345,
      "a.": 9346,
      "a:Ġ": 9347,
      "layĠ": 9348,
      "sew": 9349,
      "uj": 9350,
      "vend": 9351,
      "orm": 9352,
      "orang": 9353,
      "ofĠherĠ": 9354,
      "atĠleast": 9355,
      "leanĠ": 9356,
      "bug": 9357,
      "essential": 9358,
      "compass": 9359,
      "butĠalsoĠ": 9360,
      "WhichĠ": 9361,
      "mineĠ": 9362,
      "isĠaĠgreatĠ": 9363,
      "anyway": 9364,
      "retailĠ": 9365,
      "ology": 9366,
      "ĠteachĠ": 9367,
[...]
